{
  "version": "1.0",
  "truncation": null,
  "padding": null,
  "added_tokens": [
    {
      "id": 0,
      "content": "<pad>",
      "single_word": false,
      "lstrip": false,
      "rstrip": false,
      "normalized": false,
      "special": true
    },
    {
      "id": 1,
      "content": "<eos>",
      "single_word": false,
      "lstrip": false,
      "rstrip": false,
      "normalized": false,
      "special": true
    },
    {
      "id": 2,
      "content": "<unk>",
      "single_word": false,
      "lstrip": false,
      "rstrip": false,
      "normalized": false,
      "special": true
    }
  ],
  "normalizer": null,
  "pre_tokenizer": {
    "type": "Whitespace"
  },
  "post_processor": null,
  "decoder": null,
  "model": {
    "type": "BPE",
    "dropout": null,
    "unk_token": "[UNK]",
    "continuing_subword_prefix": null,
    "end_of_word_suffix": null,
    "fuse_unk": false,
    "byte_fallback": false,
    "ignore_merges": false,
    "vocab": {
      "<pad>": 0,
      "<eos>": 1,
      "<unk>": 2,
      "!": 3,
      "#": 4,
      "&": 5,
      "(": 6,
      ")": 7,
      "*": 8,
      ",": 9,
      "-": 10,
      ".": 11,
      "0": 12,
      "1": 13,
      "2": 14,
      "3": 15,
      "4": 16,
      "5": 17,
      "6": 18,
      "7": 19,
      "8": 20,
      "9": 21,
      ":": 22,
      ";": 23,
      "?": 24,
      "A": 25,
      "B": 26,
      "C": 27,
      "D": 28,
      "E": 29,
      "F": 30,
      "G": 31,
      "H": 32,
      "I": 33,
      "J": 34,
      "K": 35,
      "L": 36,
      "M": 37,
      "N": 38,
      "O": 39,
      "P": 40,
      "Q": 41,
      "R": 42,
      "S": 43,
      "T": 44,
      "U": 45,
      "V": 46,
      "W": 47,
      "X": 48,
      "Y": 49,
      "[": 50,
      "]": 51,
      "_": 52,
      "a": 53,
      "b": 54,
      "c": 55,
      "d": 56,
      "e": 57,
      "f": 58,
      "g": 59,
      "h": 60,
      "i": 61,
      "j": 62,
      "k": 63,
      "l": 64,
      "m": 65,
      "n": 66,
      "o": 67,
      "p": 68,
      "q": 69,
      "r": 70,
      "s": 71,
      "t": 72,
      "u": 73,
      "v": 74,
      "w": 75,
      "x": 76,
      "y": 77,
      "z": 78,
      "æ": 79,
      "œ": 80,
      "—": 81,
      "‘": 82,
      "’": 83,
      "“": 84,
      "”": 85,
      "th": 86,
      "ou": 87,
      "in": 88,
      "er": 89,
      "an": 90,
      "or": 91,
      "the": 92,
      "en": 93,
      "es": 94,
      "is": 95,
      "at": 96,
      "ar": 97,
      "on": 98,
      "ll": 99,
      "st": 100,
      "ve": 101,
      "to": 102,
      "no": 103,
      "he": 104,
      "se": 105,
      "and": 106,
      "me": 107,
      "you": 108,
      "of": 109,
      "re": 110,
      "ing": 111,
      "it": 112,
      "ha": 113,
      "be": 114,
      "le": 115,
      "my": 116,
      "wi": 117,
      "hi": 118,
      "ed": 119,
      "ch": 120,
      "ce": 121,
      "ow": 122,
      "ut": 123,
      "as": 124,
      "for": 125,
      "ld": 126,
      "ay": 127,
      "om": 128,
      "nd": 129,
      "lo": 130,
      "gh": 131,
      "that": 132,
      "not": 133,
      "Th": 134,
      "ir": 135,
      "ere": 136,
      "de": 137,
      "we": 138,
      "li": 139,
      "thou": 140,
      "wh": 141,
      "ri": 142,
      "our": 143,
      "ke": 144,
      "et": 145,
      "al": 146,
      "And": 147,
      "so": 148,
      "with": 149,
      "LE": 150,
      "ra": 151,
      "do": 152,
      "thy": 153,
      "ght": 154,
      "ent": 155,
      "his": 156,
      "ma": 157,
      "your": 158,
      "Wh": 159,
      "ess": 160,
      "ter": 161,
      "ti": 162,
      "ver": 163,
      "am": 164,
      "all": 165,
      "oo": 166,
      "ly": 167,
      "have": 168,
      "su": 169,
      "ther": 170,
      "fe": 171,
      "him": 172,
      "id": 173,
      "her": 174,
      "est": 175,
      "ad": 176,
      "are": 177,
      "pr": 178,
      "ould": 179,
      "love": 180,
      "now": 181,
      "thee": 182,
      "ne": 183,
      "AR": 184,
      "The": 185,
      "ain": 186,
      "end": 187,
      "this": 188,
      "art": 189,
      "us": 190,
      "sha": 191,
      "ine": 192,
      "pe": 193,
      "ru": 194,
      "ur": 195,
      "one": 196,
      "wor": 197,
      "hich": 198,
      "but": 199,
      "ge": 200,
      "will": 201,
      "nt": 202,
      "ck": 203,
      "fa": 204,
      "ill": 205,
      "sh": 206,
      "sel": 207,
      "mo": 208,
      "RA": 209,
      "ER": 210,
      "AN": 211,
      "po": 212,
      "That": 213,
      "mor": 214,
      "But": 215,
      "rom": 216,
      "To": 217,
      "TRA": 218,
      "la": 219,
      "shall": 220,
      "OL": 221,
      "ood": 222,
      "self": 223,
      "ight": 224,
      "know": 225,
      "by": 226,
      "lor": 227,
      "can": 228,
      "LO": 229,
      "qu": 230,
      "ure": 231,
      "con": 232,
      "HE": 233,
      "ome": 234,
      "old": 235,
      "from": 236,
      "ro": 237,
      "ES": 238,
      "mu": 239,
      "ind": 240,
      "ak": 241,
      "EN": 242,
      "which": 243,
      "well": 244,
      "ion": 245,
      "up": 246,
      "com": 247,
      "un": 248,
      "own": 249,
      "what": 250,
      "more": 251,
      "if": 252,
      "il": 253,
      "PAR": 254,
      "ct": 255,
      "ive": 256,
      "man": 257,
      "she": 258,
      "CO": 259,
      "ul": 260,
      "ence": 261,
      "LES": 262,
      "OLLES": 263,
      "PAROLLES": 264,
      "see": 265,
      "He": 266,
      "tru": 267,
      "was": 268,
      "ate": 269,
      "ong": 270,
      "ous": 271,
      "reat": 272,
      "ves": 273,
      "ard": 274,
      "For": 275,
      "ave": 276,
      "would": 277,
      "thing": 278,
      "ey": 279,
      "say": 280,
      "te": 281,
      "good": 282,
      "ers": 283,
      "ant": 284,
      "ESS": 285,
      "ble": 286,
      "ink": 287,
      "lord": 288,
      "ST": 289,
      "ap": 290,
      "bo": 291,
      "they": 292,
      "go": 293,
      "than": 294,
      "IR": 295,
      "ever": 296,
      "ose": 297,
      "ven": 298,
      "NA": 299,
      "ast": 300,
      "swe": 301,
      "vi": 302,
      "there": 303,
      "FIR": 304,
      "sir": 305,
      "fore": 306,
      "FIRST": 307,
      "sa": 308,
      "LENA": 309,
      "HELENA": 310,
      "mine": 311,
      "ple": 312,
      "IN": 313,
      "gain": 314,
      "si": 315,
      "their": 316,
      "should": 317,
      "EW": 318,
      "LOR": 319,
      "BER": 320,
      "If": 321,
      "di": 322,
      "ity": 323,
      "make": 324,
      "time": 325,
      "LORD": 326,
      "TRAM": 327,
      "BERTRAM": 328,
      "My": 329,
      "then": 330,
      "pro": 331,
      "LA": 332,
      "When": 333,
      "them": 334,
      "spe": 335,
      "when": 336,
      "ING": 337,
      "FEW": 338,
      "No": 339,
      "LAFEW": 340,
      "KING": 341,
      "ount": 342,
      "heart": 343,
      "ath": 344,
      "hon": 345,
      "way": 346,
      "What": 347,
      "In": 348,
      "ep": 349,
      "great": 350,
      "nter": 351,
      "ars": 352,
      "DI": 353,
      "loo": 354,
      "most": 355,
      "You": 356,
      "aut": 357,
      "ran": 358,
      "ta": 359,
      "hath": 360,
      "like": 361,
      "As": 362,
      "Ex": 363,
      "So": 364,
      "out": 365,
      "PA": 366,
      "were": 367,
      "dis": 368,
      "did": 369,
      "sp": 370,
      "NT": 371,
      "other": 372,
      "ring": 373,
      "let": 374,
      "doth": 375,
      "UNT": 376,
      "may": 377,
      "COUNT": 378,
      "COUNTESS": 379,
      "Which": 380,
      "ry": 381,
      "ound": 382,
      "ene": 383,
      "ish": 384,
      "too": 385,
      "beaut": 386,
      "must": 387,
      "upon": 388,
      "sweet": 389,
      "ex": 390,
      "fi": 391,
      "um": 392,
      "had": 393,
      "Enter": 394,
      "ness": 395,
      "per": 396,
      "where": 397,
      "ith": 398,
      "row": 399,
      "use": 400,
      "think": 401,
      "ON": 402,
      "yet": 403,
      "US": 404,
      "come": 405,
      "some": 406,
      "des": 407,
      "ser": 408,
      "tu": 409,
      "CLE": 410,
      "OPA": 411,
      "fair": 412,
      "CLEOPA": 413,
      "CLEOPATRA": 414,
      "_Ex": 415,
      "gra": 416,
      "ANT": 417,
      "bl": 418,
      "give": 419,
      "ise": 420,
      "such": 421,
      "ONY": 422,
      "ANTONY": 423,
      "fri": 424,
      "pt": 425,
      "Thou": 426,
      "II": 427,
      "age": 428,
      "again": 429,
      "beauty": 430,
      "friend": 431,
      "Ca": 432,
      "ace": 433,
      "ds": 434,
      "day": 435,
      "Of": 436,
      "part": 437,
      "ony": 438,
      "Ant": 439,
      "ase": 440,
      "ert": 441,
      "eyes": 442,
      "Be": 443,
      "ful": 444,
      "king": 445,
      "esar": 446,
      "bet": 447,
      "tion": 448,
      "Caesar": 449,
      "We": 450,
      "ss": 451,
      "live": 452,
      "honour": 453,
      "Ro": 454,
      "sc": 455,
      "mad": 456,
      "speak": 457,
      "Sc": 458,
      "ho": 459,
      "im": 460,
      "Antony": 461,
      "mar": 462,
      "hea": 463,
      "Scene": 464,
      "gu": 465,
      "thine": 466,
      "ort": 467,
      "ac": 468,
      "fl": 469,
      "ks": 470,
      "wr": 471,
      "thought": 472,
      "here": 473,
      "oll": 474,
      "pp": 475,
      "red": 476,
      "dear": 477,
      "und": 478,
      "ite": 479,
      "new": 480,
      "Is": 481,
      "pat": 482,
      "tend": 483,
      "ving": 484,
      "vir": 485,
      "CLO": 486,
      "WN": 487,
      "With": 488,
      "af": 489,
      "ci": 490,
      "hand": 491,
      "unt": 492,
      "urn": 493,
      "world": 494,
      "true": 495,
      "CLOWN": 496,
      "ab": 497,
      "bre": 498,
      "el": 499,
      "men": 500,
      "mer": 501,
      "might": 502,
      "ty": 503,
      "every": 504,
      "ear": 505,
      "rep": 506,
      "ower": 507,
      "life": 508,
      "madam": 509,
      "SE": 510,
      "how": 511,
      "na": 512,
      "nat": 513,
      "tis": 514,
      "much": 515,
      "take": 516,
      "Let": 517,
      "Or": 518,
      "less": 519,
      "pra": 520,
      "still": 521,
      "asure": 522,
      "This": 523,
      "though": 524,
      "never": 525,
      "ND": 526,
      "nor": 527,
      "night": 528,
      "Where": 529,
      "COND": 530,
      "SECOND": 531,
      "How": 532,
      "It": 533,
      "co": 534,
      "ust": 535,
      "ince": 536,
      "very": 537,
      "ANA": 538,
      "eye": 539,
      "ment": 540,
      "ance": 541,
      "ass": 542,
      "lie": 543,
      "pres": 544,
      "tell": 545,
      "heaven": 546,
      "lt": 547,
      "pl": 548,
      "res": 549,
      "wo": 550,
      "any": 551,
      "nothing": 552,
      "sed": 553,
      "THE": 554,
      "ian": 555,
      "ull": 556,
      "wom": 557,
      "orn": 558,
      "ation": 559,
      "off": 560,
      "hast": 561,
      "Par": 562,
      "away": 563,
      "che": 564,
      "cour": 565,
      "mb": 566,
      "str": 567,
      "hear": 568,
      "show": 569,
      "cannot": 570,
      "hold": 571,
      "mis": 572,
      "Then": 573,
      "There": 574,
      "entle": 575,
      "fir": 576,
      "pri": 577,
      "ts": 578,
      "being": 579,
      "made": 580,
      "Why": 581,
      "poor": 582,
      "truth": 583,
      "DIANA": 584,
      "By": 585,
      "CEN": 586,
      "ID": 587,
      "au": 588,
      "ef": 589,
      "find": 590,
      "ue": 591,
      "ans": 592,
      "eng": 593,
      "led": 594,
      "death": 595,
      "alace": 596,
      "both": 597,
      "ach": 598,
      "ret": 599,
      "wife": 600,
      "Thy": 601,
      "deed": 602,
      "lack": 603,
      "Ale": 604,
      "eunt": 605,
      "ig": 606,
      "mon": 607,
      "better": 608,
      "nature": 609,
      "Alex": 610,
      "CH": 611,
      "Count": 612,
      "Flor": 613,
      "bus": 614,
      "ward": 615,
      "those": 616,
      "atter": 617,
      "leave": 618,
      "tune": 619,
      "Do": 620,
      "gin": 621,
      "long": 622,
      "arm": 623,
      "stand": 624,
      "before": 625,
      "Who": 626,
      "mother": 627,
      "name": 628,
      "SOL": 629,
      "count": 630,
      "far": 631,
      "gi": 632,
      "gri": 633,
      "len": 634,
      "son": 635,
      "right": 636,
      "DIER": 637,
      "_Exeunt": 638,
      "CHAR": 639,
      "SOLDIER": 640,
      "Go": 641,
      "MI": 642,
      "ng": 643,
      "sing": 644,
      "ted": 645,
      "ough": 646,
      "ord": 647,
      "ore": 648,
      "whose": 649,
      "ram": 650,
      "ady": 651,
      "worth": 652,
      "first": 653,
      "His": 654,
      "call": 655,
      "em": 656,
      "foo": 657,
      "pla": 658,
      "war": 659,
      "CHARMI": 660,
      "CHARMIAN": 661,
      "TH": 662,
      "Yet": 663,
      "best": 664,
      "pi": 665,
      "pur": 666,
      "power": 667,
      "ress": 668,
      "these": 669,
      "ond": 670,
      "light": 671,
      "word": 672,
      "cont": 673,
      "seem": 674,
      "look": 675,
      "_Exit": 676,
      "grace": 677,
      "under": 678,
      "SCEN": 679,
      "chi": 680,
      "gentle": 681,
      "hour": 682,
      "ies": 683,
      "kn": 684,
      "ree": 685,
      "high": 686,
      "esty": 687,
      "many": 688,
      "pleasure": 689,
      "SCENE": 690,
      "OB": 691,
      "could": 692,
      "dy": 693,
      "iness": 694,
      "ang": 695,
      "dead": 696,
      "rum": 697,
      "Not": 698,
      "praise": 699,
      "BUS": 700,
      "GER": 701,
      "MESS": 702,
      "bes": 703,
      "bar": 704,
      "bloo": 705,
      "bring": 706,
      "found": 707,
      "full": 708,
      "gone": 709,
      "ten": 710,
      "maid": 711,
      "pray": 712,
      "ARBUS": 713,
      "ENOB": 714,
      "ENGER": 715,
      "MESSENGER": 716,
      "ENOBARBUS": 717,
      "Bert": 718,
      "OF": 719,
      "Your": 720,
      "able": 721,
      "none": 722,
      "put": 723,
      "tain": 724,
      "tong": 725,
      "two": 726,
      "ouse": 727,
      "young": 728,
      "selves": 729,
      "qui": 730,
      "Helen": 731,
      "woman": 732,
      "Bertram": 733,
      "Now": 734,
      "Tis": 735,
      "ake": 736,
      "bu": 737,
      "ces": 738,
      "done": 739,
      "gr": 740,
      "palace": 741,
      "ren": 742,
      "tri": 743,
      "ster": 744,
      "set": 745,
      "who": 746,
      "dost": 747,
      "illon": 748,
      "ssillon": 749,
      "Rossillon": 750,
      "virtu": 751,
      "AS": 752,
      "CA": 753,
      "Good": 754,
      "Nor": 755,
      "Sha": 756,
      "Will": 757,
      "cy": 758,
      "mes": 759,
      "pen": 760,
      "ses": 761,
      "oud": 762,
      "ste": 763,
      "reme": 764,
      "has": 765,
      "whom": 766,
      "keep": 767,
      "does": 768,
      "ook": 769,
      "things": 770,
      "Cle": 771,
      "bra": 772,
      "kes": 773,
      "kind": 774,
      "opat": 775,
      "pre": 776,
      "pet": 777,
      "youth": 778,
      "bed": 779,
      "ason": 780,
      "ria": 781,
      "till": 782,
      "sum": 783,
      "ESAR": 784,
      "comes": 785,
      "via": 786,
      "die": 787,
      "thoughts": 788,
      "olles": 789,
      "after": 790,
      "Parolles": 791,
      "CAESAR": 792,
      "Cleopat": 793,
      "Cleopatra": 794,
      "ba": 795,
      "bro": 796,
      "ca": 797,
      "fer": 798,
      "fal": 799,
      "je": 800,
      "mind": 801,
      "ark": 802,
      "bear": 803,
      "hip": 804,
      "lose": 805,
      "need": 806,
      "face": 807,
      "father": 808,
      "que": 809,
      "rance": 810,
      "Room": 811,
      "hope": 812,
      "knave": 813,
      "false": 814,
      "At": 815,
      "From": 816,
      "Lo": 817,
      "gl": 818,
      "gy": 819,
      "hus": 820,
      "pain": 821,
      "rest": 822,
      "hed": 823,
      "its": 824,
      "been": 825,
      "Than": 826,
      "lies": 827,
      "ried": 828,
      "alone": 829,
      "fect": 830,
      "room": 831,
      "comm": 832,
      "fool": 833,
      "Ay": 834,
      "Ti": 835,
      "cap": 836,
      "lady": 837,
      "spo": 838,
      "tra": 839,
      "oul": 840,
      "int": 841,
      "into": 842,
      "another": 843,
      "ved": 844,
      "andria": 845,
      "med": 846,
      "thout": 847,
      "fear": 848,
      "serve": 849,
      "strong": 850,
      "answ": 851,
      "Alexandria": 852,
      "Countess": 853,
      "Florence": 854,
      "blood": 855,
      "tongue": 856,
      ",—": 857,
      "Egy": 858,
      "Nay": 859,
      "Our": 860,
      "She": 861,
      "band": 862,
      "car": 863,
      "foll": 864,
      "hate": 865,
      "harm": 866,
      "ither": 867,
      "tle": 868,
      "tal": 869,
      "ange": 870,
      "happ": 871,
      "forth": 872,
      "fortune": 873,
      "ents": 874,
      "amp": 875,
      "sure": 876,
      "lords": 877,
      "letter": 878,
      "against": 879,
      "friends": 880,
      "Shall": 881,
      "Her": 882,
      "Since": 883,
      "air": 884,
      "bid": 885,
      "du": 886,
      "drum": 887,
      "ee": 888,
      "ft": 889,
      "grow": 890,
      "hor": 891,
      "ic": 892,
      "kill": 893,
      "matter": 894,
      "ph": 895,
      "past": 896,
      "wish": 897,
      "state": 898,
      "hel": 899,
      "char": 900,
      "ceive": 901,
      "times": 902,
      "sub": 903,
      "They": 904,
      "gainst": 905,
      "umb": 906,
      "virgin": 907,
      "report": 908,
      "present": 909,
      "aught": 910,
      "business": 911,
      "answer": 912,
      "Come": 913,
      "Lord": 914,
      "Whi": 915,
      "ag": 916,
      "cess": 917,
      "ction": 918,
      "down": 919,
      "house": 920,
      "ie": 921,
      "lour": 922,
      "ning": 923,
      "tress": 924,
      "ud": 925,
      "whi": 926,
      "orrow": 927,
      "noble": 928,
      "seen": 929,
      "alth": 930,
      "thyself": 931,
      "arewell": 932,
      "faul": 933,
      "knows": 934,
      "Though": 935,
      "cious": 936,
      "court": 937,
      "place": 938,
      "Egypt": 939,
      "All": 940,
      "TLE": 941,
      "even": 942,
      "gre": 943,
      "home": 944,
      "jo": 945,
      "ken": 946,
      "lay": 947,
      "par": 948,
      "tre": 949,
      "vo": 950,
      "thus": 951,
      "indeed": 952,
      "atch": 953,
      "ary": 954,
      "ings": 955,
      "yourself": 956,
      "esseng": 957,
      "proud": 958,
      "vice": 959,
      "sick": 960,
      "prove": 961,
      "III": 962,
      "husband": 963,
      "CT": 964,
      "GEN": 965,
      "Here": 966,
      "La": 967,
      "OW": 968,
      "Rome": 969,
      "Sir": 970,
      "WID": 971,
      "den": 972,
      "ier": 973,
      "ience": 974,
      "ob": 975,
      "pass": 976,
      "rown": 977,
      "ought": 978,
      "stay": 979,
      "stri": 980,
      "vel": 981,
      "ition": 982,
      "lear": 983,
      "myself": 984,
      "ows": 985,
      "form": 986,
      "rich": 987,
      "sold": 988,
      "fell": 989,
      "pose": 990,
      "days": 991,
      "else": 992,
      "mistress": 993,
      "ign": 994,
      "Time": 995,
      "TLEM": 996,
      "GENTLEM": 997,
      "WIDOW": 998,
      "PID": 999,
      "br": 1000,
      "cou": 1001,
      "ew": 1002,
      "ire": 1003,
      "pon": 1004,
      "sl": 1005,
      "sin": 1006,
      "sent": 1007,
      "turn": 1008,
      "uck": 1009,
      "vil": 1010,
      "only": 1011,
      "stran": 1012,
      "loves": 1013,
      "LEPID": 1014,
      "few": 1015,
      "himself": 1016,
      "words": 1017,
      "aking": 1018,
      "got": 1019,
      "therefore": 1020,
      "spir": 1021,
      "ertain": 1022,
      "earth": 1023,
      "chee": 1024,
      "rememb": 1025,
      "Love": 1026,
      "help": 1027,
      "GENTLEMAN": 1028,
      "LEPIDUS": 1029,
      "Charm": 1030,
      "On": 1031,
      "Pom": 1032,
      "RI": 1033,
      "Upon": 1034,
      "each": 1035,
      "just": 1036,
      "lst": 1037,
      "op": 1038,
      "sight": 1039,
      "since": 1040,
      "vour": 1041,
      "vant": 1042,
      "win": 1043,
      "ener": 1044,
      "oft": 1045,
      "belie": 1046,
      "dec": 1047,
      "main": 1048,
      "master": 1049,
      "sur": 1050,
      "near": 1051,
      "worn": 1052,
      "ques": 1053,
      "ardon": 1054,
      "swear": 1055,
      "side": 1056,
      "looks": 1057,
      "play": 1058,
      "God": 1059,
      "child": 1060,
      "quick": 1061,
      "summer": 1062,
      "Charmian": 1063,
      "Pompe": 1064,
      "France": 1065,
      "May": 1066,
      "OTH": 1067,
      "Un": 1068,
      "born": 1069,
      "black": 1070,
      "creat": 1071,
      "daught": 1072,
      "get": 1073,
      "jesty": 1074,
      "lit": 1075,
      "sen": 1076,
      "ting": 1077,
      "vent": 1078,
      "ern": 1079,
      "ated": 1080,
      "once": 1081,
      "majesty": 1082,
      "yours": 1083,
      "worthy": 1084,
      "law": 1085,
      "comp": 1086,
      "tem": 1087,
      "thank": 1088,
      "sake": 1089,
      "please": 1090,
      "fire": 1091,
      "Well": 1092,
      "wrong": 1093,
      "rench": 1094,
      "Lafew": 1095,
      "daughter": 1096,
      "Dian": 1097,
      "Ful": 1098,
      "King": 1099,
      "Mad": 1100,
      "Was": 1101,
      "cor": 1102,
      "fall": 1103,
      "fur": 1104,
      "ga": 1105,
      "gold": 1106,
      "hence": 1107,
      "ice": 1108,
      "lend": 1109,
      "min": 1110,
      "ray": 1111,
      "send": 1112,
      "vy": 1113,
      "want": 1114,
      "thr": 1115,
      "ouch": 1116,
      "ors": 1117,
      "enough": 1118,
      "wilt": 1119,
      "ask": 1120,
      "lost": 1121,
      "raw": 1122,
      "rather": 1123,
      "Whose": 1124,
      "verse": 1125,
      "sun": 1126,
      "ads": 1127,
      "loved": 1128,
      "shalt": 1129,
      "pect": 1130,
      "run": 1131,
      "conf": 1132,
      "boy": 1133,
      "said": 1134,
      "Therefore": 1135,
      "return": 1136,
      "virtue": 1137,
      "back": 1138,
      "cause": 1139,
      "eneral": 1140,
      "Pompey": 1141,
      "Fulvia": 1142,
      "ACT": 1143,
      "French": 1144,
      "Have": 1145,
      "IV": 1146,
      "Some": 1147,
      "Till": 1148,
      "clo": 1149,
      "gg": 1150,
      "gave": 1151,
      "iers": 1152,
      "les": 1153,
      "ps": 1154,
      "pity": 1155,
      "sle": 1156,
      "som": 1157,
      "soul": 1158,
      "uch": 1159,
      "wind": 1160,
      "inc": 1161,
      "read": 1162,
      "reason": 1163,
      "eds": 1164,
      "change": 1165,
      "fort": 1166,
      "wel": 1167,
      "shame": 1168,
      "cks": 1169,
      "pos": 1170,
      "same": 1171,
      "exce": 1172,
      "desp": 1173,
      "deser": 1174,
      "imp": 1175,
      "marry": 1176,
      "married": 1177,
      "writ": 1178,
      "hours": 1179,
      "brother": 1180,
      "queen": 1181,
      "lordship": 1182,
      "essenger": 1183,
      "strange": 1184,
      "Did": 1185,
      "Farewell": 1186,
      "Give": 1187,
      "Re": 1188,
      "SO": 1189,
      "Wid": 1190,
      "aid": 1191,
      "cold": 1192,
      "cred": 1193,
      "dom": 1194,
      "ious": 1195,
      "jud": 1196,
      "pay": 1197,
      "sad": 1198,
      "sorrow": 1199,
      "tak": 1200,
      "wars": 1201,
      "ye": 1202,
      "thri": 1203,
      "ines": 1204,
      "iss": 1205,
      "attend": 1206,
      "stra": 1207,
      "offi": 1208,
      "itself": 1209,
      "without": 1210,
      "cho": 1211,
      "cei": 1212,
      "deli": 1213,
      "why": 1214,
      "suf": 1215,
      "aint": 1216,
      "honest": 1217,
      "service": 1218,
      "fles": 1219,
      "write": 1220,
      "haste": 1221,
      "Alexas": 1222,
      "Helena": 1223,
      "ject": 1224,
      "follow": 1225,
      "happy": 1226,
      "joy": 1227,
      "spirit": 1228,
      "believe": 1229,
      "little": 1230,
      "further": 1231,
      "Widow": 1232,
      "AY": 1233,
      "ALE": 1234,
      "Against": 1235,
      "Mine": 1236,
      "Say": 1237,
      "SAY": 1238,
      "act": 1239,
      "bad": 1240,
      "bright": 1241,
      "cha": 1242,
      "cri": 1243,
      "care": 1244,
      "dow": 1245,
      "dare": 1246,
      "free": 1247,
      "general": 1248,
      "hum": 1249,
      "ied": 1250,
      "lan": 1251,
      "oth": 1252,
      "oath": 1253,
      "pardon": 1254,
      "sword": 1255,
      "ught": 1256,
      "va": 1257,
      "wit": 1258,
      "wast": 1259,
      "ze": 1260,
      "ist": 1261,
      "told": 1262,
      "head": 1263,
      "mean": 1264,
      "eding": 1265,
      "loss": 1266,
      "ween": 1267,
      "wear": 1268,
      "lives": 1269,
      "makes": 1270,
      "tic": 1271,
      "suc": 1272,
      "suit": 1273,
      "add": 1274,
      "pear": 1275,
      "faith": 1276,
      "lame": 1277,
      "common": 1278,
      "trust": 1279,
      "body": 1280,
      "view": 1281,
      "sie": 1282,
      "themselves": 1283,
      "others": 1284,
      "desire": 1285,
      "between": 1286,
      "scar": 1287,
      "tender": 1288,
      "ength": 1289,
      "Florent": 1290,
      "grief": 1291,
      "command": 1292,
      "duke": 1293,
      "virginity": 1294,
      "faults": 1295,
      "question": 1296,
      "OTHSAY": 1297,
      "Madam": 1298,
      "SOOTHSAY": 1299,
      "SOOTHSAYER": 1300,
      "Li": 1301,
      "Oct": 1302,
      "XAS": 1303,
      "_A": 1304,
      "cti": 1305,
      "cur": 1306,
      "cure": 1307,
      "case": 1308,
      "camp": 1309,
      "ec": 1310,
      "eat": 1311,
      "gro": 1312,
      "igh": 1313,
      "ide": 1314,
      "ily": 1315,
      "ls": 1316,
      "ned": 1317,
      "ton": 1318,
      "wond": 1319,
      "xt": 1320,
      "essed": 1321,
      "ised": 1322,
      "ater": 1323,
      "sto": 1324,
      "stre": 1325,
      "lov": 1326,
      "ourselves": 1327,
      "within": 1328,
      "feit": 1329,
      "press": 1330,
      "known": 1331,
      "qual": 1332,
      "cond": 1333,
      "ils": 1334,
      "saw": 1335,
      "mayst": 1336,
      "ument": 1337,
      "ledge": 1338,
      "deeds": 1339,
      "given": 1340,
      "purpose": 1341,
      "besee": 1342,
      "steal": 1343,
      "captain": 1344,
      "Whilst": 1345,
      "cheek": 1346,
      "sense": 1347,
      "ALEXAS": 1348,
      "Octa": 1349,
      "beseech": 1350,
      "10": 1351,
      "Du": 1352,
      "Hath": 1353,
      "Look": 1354,
      "Mar": 1355,
      "MAR": 1356,
      "Mars": 1357,
      "Make": 1358,
      "Messenger": 1359,
      "Palace": 1360,
      "Spe": 1361,
      "Were": 1362,
      "Would": 1363,
      "bon": 1364,
      "dou": 1365,
      "draw": 1366,
      "fo": 1367,
      "fit": 1368,
      "gif": 1369,
      "knew": 1370,
      "late": 1371,
      "mit": 1372,
      "over": 1373,
      "tw": 1374,
      "inst": 1375,
      "enas": 1376,
      "ison": 1377,
      "ister": 1378,
      "hether": 1379,
      "owers": 1380,
      "loving": 1381,
      "Thus": 1382,
      "dem": 1383,
      "living": 1384,
      "prof": 1385,
      "prom": 1386,
      "ush": 1387,
      "favour": 1388,
      "last": 1389,
      "Fortune": 1390,
      "says": 1391,
      "tears": 1392,
      "thinks": 1393,
      "gracious": 1394,
      "parts": 1395,
      "holy": 1396,
      "ments": 1397,
      "woe": 1398,
      "Paris": 1399,
      "content": 1400,
      "anger": 1401,
      "Attend": 1402,
      "spoke": 1403,
      "horse": 1404,
      "soldier": 1405,
      "tempt": 1406,
      "Diana": 1407,
      "sleep": 1408,
      "flesh": 1409,
      "Florentine": 1410,
      "Like": 1411,
      "12": 1412,
      "13": 1413,
      "14": 1414,
      "Al": 1415,
      "An": 1416,
      "Ano": 1417,
      "Com": 1418,
      "Cap": 1419,
      "ED": 1420,
      "Even": 1421,
      "Flour": 1422,
      "GRI": 1423,
      "LL": 1424,
      "Lor": 1425,
      "Lep": 1426,
      "Ma": 1427,
      "More": 1428,
      "aves": 1429,
      "bit": 1430,
      "bour": 1431,
      "brow": 1432,
      "eous": 1433,
      "lf": 1434,
      "lust": 1435,
      "mus": 1436,
      "ras": 1437,
      "rink": 1438,
      "sand": 1439,
      "sla": 1440,
      "save": 1441,
      "skill": 1442,
      "sworn": 1443,
      "touch": 1444,
      "vow": 1445,
      "vere": 1446,
      "wis": 1447,
      "thi": 1448,
      "stor": 1449,
      "store": 1450,
      "toge": 1451,
      "sea": 1452,
      "remo": 1453,
      "beat": 1454,
      "deep": 1455,
      "lic": 1456,
      "thousand": 1457,
      "vers": 1458,
      "idus": 1459,
      "work": 1460,
      "worse": 1461,
      "mortal": 1462,
      "conc": 1463,
      "appro": 1464,
      "sim": 1465,
      "speed": 1466,
      "hearts": 1467,
      "greatest": 1468,
      "took": 1469,
      "servant": 1470,
      "heavy": 1471,
      "gue": 1472,
      "acqu": 1473,
      "news": 1474,
      "break": 1475,
      "breath": 1476,
      "respect": 1477,
      "pride": 1478,
      "letters": 1479,
      "phy": 1480,
      "charge": 1481,
      "fellow": 1482,
      "counter": 1483,
      "decay": 1484,
      "suffer": 1485,
      "sieur": 1486,
      "tonight": 1487,
      "Octavia": 1488,
      "Speak": 1489,
      "Another": 1490,
      "Flourish": 1491,
      "Lords": 1492,
      "Lepidus": 1493,
      "together": 1494,
      "Are": 1495,
      "Agri": 1496,
      "AGRI": 1497,
      "Eno": 1498,
      "Gentle": 1499,
      "MP": 1500,
      "One": 1501,
      "PPA": 1502,
      "St": 1503,
      "Sold": 1504,
      "Take": 1505,
      "VI": 1506,
      "Wi": 1507,
      "ber": 1508,
      "bir": 1509,
      "bound": 1510,
      "ced": 1511,
      "cuse": 1512,
      "certain": 1513,
      "dut": 1514,
      "dark": 1515,
      "ech": 1516,
      "fing": 1517,
      "fam": 1518,
      "fine": 1519,
      "gar": 1520,
      "hy": 1521,
      "ling": 1522,
      "ms": 1523,
      "mir": 1524,
      "mend": 1525,
      "ners": 1526,
      "pes": 1527,
      "rant": 1528,
      "sil": 1529,
      "sound": 1530,
      "twi": 1531,
      "uri": 1532,
      "water": 1533,
      "three": 1534,
      "ese": 1535,
      "ising": 1536,
      "ates": 1537,
      "stain": 1538,
      "heard": 1539,
      "health": 1540,
      "sever": 1541,
      "rew": 1542,
      "recei": 1543,
      "half": 1544,
      "force": 1545,
      "note": 1546,
      "Those": 1547,
      "delight": 1548,
      "weak": 1549,
      "kept": 1550,
      "ets": 1551,
      "soon": 1552,
      "sovere": 1553,
      "sue": 1554,
      "sup": 1555,
      "fection": 1556,
      "rupt": 1557,
      "cked": 1558,
      "motion": 1559,
      "knowledge": 1560,
      "canst": 1561,
      "const": 1562,
      "confound": 1563,
      "ility": 1564,
      "cted": 1565,
      "god": 1566,
      "going": 1567,
      "shouldst": 1568,
      "thence": 1569,
      "speech": 1570,
      "honesty": 1571,
      "bless": 1572,
      "Before": 1573,
      "ppa": 1574,
      "patience": 1575,
      "about": 1576,
      "cover": 1577,
      "colour": 1578,
      "women": 1579,
      "ched": 1580,
      "strength": 1581,
      "shows": 1582,
      "effect": 1583,
      "gives": 1584,
      "barbus": 1585,
      "grant": 1586,
      "brave": 1587,
      "glass": 1588,
      "treasure": 1589,
      "through": 1590,
      "oaths": 1591,
      "success": 1592,
      "gift": 1593,
      "Attendant": 1594,
      "Captain": 1595,
      "EDY": 1596,
      "slave": 1597,
      "physi": 1598,
      "Agrippa": 1599,
      "AGRIPPA": 1600,
      "Enobarbus": 1601,
      "Without": 1602,
      "Cl": 1603,
      "Can": 1604,
      "De": 1605,
      "GEDY": 1606,
      "MA": 1607,
      "Me": 1608,
      "Mo": 1609,
      "Muse": 1610,
      "_To": 1611,
      "athe": 1612,
      "bri": 1613,
      "bur": 1614,
      "cru": 1615,
      "crown": 1616,
      "dwell": 1617,
      "danger": 1618,
      "eld": 1619,
      "fy": 1620,
      "fet": 1621,
      "fra": 1622,
      "fill": 1623,
      "fres": 1624,
      "foul": 1625,
      "gn": 1626,
      "ged": 1627,
      "ient": 1628,
      "ius": 1629,
      "mour": 1630,
      "ner": 1631,
      "numb": 1632,
      "pil": 1633,
      "pap": 1634,
      "sal": 1635,
      "wa": 1636,
      "ins": 1637,
      "inter": 1638,
      "invent": 1639,
      "ered": 1640,
      "anti": 1641,
      "ancy": 1642,
      "ished": 1643,
      "hell": 1644,
      "second": 1645,
      "mell": 1646,
      "behold": 1647,
      "begin": 1648,
      "hide": 1649,
      "choo": 1650,
      "ute": 1651,
      "weep": 1652,
      "wealth": 1653,
      "riage": 1654,
      "etern": 1655,
      "almost": 1656,
      "rah": 1657,
      "fears": 1658,
      "ends": 1659,
      "ures": 1660,
      "worst": 1661,
      "short": 1662,
      "point": 1663,
      "TRAGEDY": 1664,
      "roy": 1665,
      "ions": 1666,
      "truly": 1667,
      "appear": 1668,
      "bosom": 1669,
      "goes": 1670,
      "ways": 1671,
      "sport": 1672,
      "used": 1673,
      "flatter": 1674,
      "pped": 1675,
      "dearest": 1676,
      "breast": 1677,
      "offend": 1678,
      "course": 1679,
      "stands": 1680,
      "calls": 1681,
      "fully": 1682,
      "maiden": 1683,
      "virtuous": 1684,
      "needs": 1685,
      "remembrance": 1686,
      "winter": 1687,
      "lawful": 1688,
      "fortun": 1689,
      "taken": 1690,
      "office": 1691,
      "_Aside": 1692,
      "music": 1693,
      "Soldiers": 1694,
      "duty": 1695,
      "sovereign": 1696,
      "pilgri": 1697,
      ".”": 1698,
      "Con": 1699,
      "Dis": 1700,
      "ECEN": 1701,
      "Great": 1702,
      "House": 1703,
      "Mark": 1704,
      "Po": 1705,
      "Pray": 1706,
      "RY": 1707,
      "Save": 1708,
      "Such": 1709,
      "Und": 1710,
      "Wor": 1711,
      "Yes": 1712,
      "aw": 1713,
      "bold": 1714,
      "cat": 1715,
      "der": 1716,
      "dain": 1717,
      "date": 1718,
      "dull": 1719,
      "drink": 1720,
      "ears": 1721,
      "either": 1722,
      "fin": 1723,
      "glor": 1724,
      "hur": 1725,
      "kiss": 1726,
      "lines": 1727,
      "os": 1728,
      "pret": 1729,
      "ron": 1730,
      "rous": 1731,
      "song": 1732,
      "smell": 1733,
      "tor": 1734,
      "tran": 1735,
      "ues": 1736,
      "won": 1737,
      "woo": 1738,
      "wound": 1739,
      "whether": 1740,
      "year": 1741,
      "ens": 1742,
      "isure": 1743,
      "arg": 1744,
      "tomb": 1745,
      "meet": 1746,
      "memor": 1747,
      "means": 1748,
      "often": 1749,
      "ready": 1750,
      "receive": 1751,
      "remain": 1752,
      "lead": 1753,
      "leaves": 1754,
      "leisure": 1755,
      "hither": 1756,
      "cher": 1757,
      "lot": 1758,
      "These": 1759,
      "ires": 1760,
      "lip": 1761,
      "rain": 1762,
      "tive": 1763,
      "ament": 1764,
      "ally": 1765,
      "oot": 1766,
      "feast": 1767,
      "ides": 1768,
      "neither": 1769,
      "next": 1770,
      "shadow": 1771,
      "peace": 1772,
      "shar": 1773,
      "mod": 1774,
      "posed": 1775,
      "lau": 1776,
      "ured": 1777,
      "coming": 1778,
      "gods": 1779,
      "thanks": 1780,
      "div": 1781,
      "died": 1782,
      "greater": 1783,
      "rank": 1784,
      "taught": 1785,
      "disgrace": 1786,
      "didst": 1787,
      "blessed": 1788,
      "blush": 1789,
      "marriage": 1790,
      "patch": 1791,
      "hands": 1792,
      "pluck": 1793,
      "holds": 1794,
      "foot": 1795,
      "highness": 1796,
      "prayers": 1797,
      "ground": 1798,
      "fault": 1799,
      "quickly": 1800,
      "corrupt": 1801,
      "credit": 1802,
      "judg": 1803,
      "straight": 1804,
      "deliver": 1805,
      "humble": 1806,
      "langu": 1807,
      "waste": 1808,
      "Duke": 1809,
      "demand": 1810,
      "Clown": 1811,
      "MAECEN": 1812,
      "cruel": 1813,
      "MAECENAS": 1814,
      ".—": 1815,
      "11": 1816,
      "Bring": 1817,
      "CE": 1818,
      "Fa": 1819,
      "Gi": 1820,
      "Had": 1821,
      "IRA": 1822,
      "KE": 1823,
      "Know": 1824,
      "MEN": 1825,
      "Making": 1826,
      "OMP": 1827,
      "POMP": 1828,
      "Sh": 1829,
      "Sp": 1830,
      "Swe": 1831,
      "UR": 1832,
      "ather": 1833,
      "abo": 1834,
      "book": 1835,
      "blame": 1836,
      "cl": 1837,
      "cla": 1838,
      "cro": 1839,
      "dre": 1840,
      "ding": 1841,
      "dam": 1842,
      "dif": 1843,
      "dumb": 1844,
      "eem": 1845,
      "fly": 1846,
      "fil": 1847,
      "farewell": 1848,
      "ghed": 1849,
      "hood": 1850,
      "hind": 1851,
      "hard": 1852,
      "hang": 1853,
      "ile": 1854,
      "ima": 1855,
      "ker": 1856,
      "land": 1857,
      "low": 1858,
      "mur": 1859,
      "od": 1860,
      "ol": 1861,
      "pit": 1862,
      "ption": 1863,
      "rhy": 1864,
      "sat": 1865,
      "sit": 1866,
      "sour": 1867,
      "tit": 1868,
      "test": 1869,
      "ub": 1870,
      "ual": 1871,
      "zed": 1872,
      "err": 1873,
      "ery": 1874,
      "eness": 1875,
      "ises": 1876,
      "arch": 1877,
      "llent": 1878,
      "star": 1879,
      "stars": 1880,
      "tow": 1881,
      "heat": 1882,
      "met": 1883,
      "rease": 1884,
      "having": 1885,
      "beloved": 1886,
      "least": 1887,
      "left": 1888,
      "wide": 1889,
      "cease": 1890,
      "oward": 1891,
      "former": 1892,
      "forgot": 1893,
      "forget": 1894,
      "deb": 1895,
      "deceive": 1896,
      "lips": 1897,
      "white": 1898,
      "entreat": 1899,
      "alls": 1900,
      "hers": 1901,
      "herself": 1902,
      "lovely": 1903,
      "AND": 1904,
      "morrow": 1905,
      "quest": 1906,
      "quite": 1907,
      "unto": 1908,
      "goodness": 1909,
      "vile": 1910,
      "outward": 1911,
      "space": 1912,
      "enemy": 1913,
      "beauteous": 1914,
      "express": 1915,
      "perfect": 1916,
      "desert": 1917,
      "fairer": 1918,
      "blind": 1919,
      "betray": 1920,
      "scorn": 1921,
      "acc": 1922,
      "flowers": 1923,
      "wrink": 1924,
      "Within": 1925,
      "merit": 1926,
      "plain": 1927,
      "wards": 1928,
      "longer": 1929,
      "single": 1930,
      "understand": 1931,
      "buried": 1932,
      "keeps": 1933,
      "jewel": 1934,
      "glad": 1935,
      "spoken": 1936,
      "travel": 1937,
      "subject": 1938,
      "partic": 1939,
      "deny": 1940,
      "strive": 1941,
      "vantage": 1942,
      "boys": 1943,
      "position": 1944,
      "wonder": 1945,
      "Marry": 1946,
      "bitter": 1947,
      "simple": 1948,
      "finger": 1949,
      "fresh": 1950,
      "paper": 1951,
      "invention": 1952,
      "choose": 1953,
      "fortunes": 1954,
      "Under": 1955,
      "glory": 1956,
      "pretty": 1957,
      "argument": 1958,
      "memory": 1959,
      "sharp": 1960,
      "Faith": 1961,
      "IRAS": 1962,
      "POMPE": 1963,
      "particul": 1964,
      "Af": 1965,
      "Ah": 1966,
      "Am": 1967,
      "Both": 1968,
      "Camp": 1969,
      "DU": 1970,
      "Ere": 1971,
      "Find": 1972,
      "Gr": 1973,
      "Ind": 1974,
      "Iras": 1975,
      "LI": 1976,
      "Le": 1977,
      "Lest": 1978,
      "Mon": 1979,
      "Might": 1980,
      "NRY": 1981,
      "Ste": 1982,
      "_Re": 1983,
      "ale": 1984,
      "ack": 1985,
      "ban": 1986,
      "base": 1987,
      "burn": 1988,
      "cr": 1989,
      "cre": 1990,
      "cle": 1991,
      "cun": 1992,
      "catch": 1993,
      "clear": 1994,
      "due": 1995,
      "eed": 1996,
      "ease": 1997,
      "evil": 1998,
      "fle": 1999,
      "four": 2000,
      "five": 2001,
      "gs": 2002,
      "ired": 2003,
      "iled": 2004,
      "lar": 2005,
      "lest": 2006,
      "line": 2007,
      "mn": 2008,
      "mou": 2009,
      "mil": 2010,
      "py": 2011,
      "pal": 2012,
      "pers": 2013,
      "rare": 2014,
      "swi": 2015,
      "spr": 2016,
      "van": 2017,
      "vows": 2018,
      "wed": 2019,
      "wise": 2020,
      "wret": 2021,
      "xed": 2022,
      "thir": 2023,
      "ined": 2024,
      "ature": 2025,
      "season": 2026,
      "medi": 2027,
      "measure": 2028,
      "ities": 2029,
      "become": 2030,
      "lease": 2031,
      "owed": 2032,
      "utation": 2033,
      "assa": 2034,
      "forbid": 2035,
      "lded": 2036,
      "devil": 2037,
      "weigh": 2038,
      "liar": 2039,
      "aly": 2040,
      "already": 2041,
      "sole": 2042,
      "entertain": 2043,
      "ession": 2044,
      "til": 2045,
      "tier": 2046,
      "oop": 2047,
      "feel": 2048,
      "ident": 2049,
      "ainted": 2050,
      "shake": 2051,
      "gement": 2052,
      "poss": 2053,
      "labour": 2054,
      "HENRY": 2055,
      "rose": 2056,
      "muse": 2057,
      "akes": 2058,
      "comfort": 2059,
      "ung": 2060,
      "unkind": 2061,
      "ctor": 2062,
      "manners": 2063,
      "seek": 2064,
      "seeing": 2065,
      "sirrah": 2066,
      "sau": 2067,
      "pleas": 2068,
      "proce": 2069,
      "ransom": 2070,
      "displeasure": 2071,
      "spend": 2072,
      "exper": 2073,
      "excuse": 2074,
      "field": 2075,
      "perate": 2076,
      "something": 2077,
      "grave": 2078,
      "graces": 2079,
      "honourable": 2080,
      "guil": 2081,
      "flower": 2082,
      "dearly": 2083,
      "absent": 2084,
      "Italy": 2085,
      "pressed": 2086,
      "orns": 2087,
      "offence": 2088,
      "courtier": 2089,
      "miss": 2090,
      "firm": 2091,
      "ignor": 2092,
      "Doth": 2093,
      "country": 2094,
      "pire": 2095,
      "chide": 2096,
      "gentlewoman": 2097,
      "bestow": 2098,
      "barren": 2099,
      "grown": 2100,
      "precious": 2101,
      "came": 2102,
      "pains": 2103,
      "folly": 2104,
      "talk": 2105,
      "angel": 2106,
      "while": 2107,
      "green": 2108,
      "greet": 2109,
      "learned": 2110,
      "soldiers": 2111,
      "brought": 2112,
      "slow": 2113,
      "cheeks": 2114,
      "Unless": 2115,
      "creature": 2116,
      "increase": 2117,
      "reasons": 2118,
      "welcome": 2119,
      "judgement": 2120,
      "pays": 2121,
      "ecenas": 2122,
      "double": 2123,
      "Maecenas": 2124,
      "wisdom": 2125,
      "story": 2126,
      "approach": 2127,
      "birth": 2128,
      "physici": 2129,
      "Most": 2130,
      "eternal": 2131,
      "royal": 2132,
      "pilgrim": 2133,
      "Sweet": 2134,
      "above": 2135,
      "claim": 2136,
      "dream": 2137,
      "differ": 2138,
      "rhyme": 2139,
      "title": 2140,
      "POMPEY": 2141,
      "After": 2142,
      "DUKE": 2143,
      "_Reads": 2144,
      "cunning": 2145,
      "swift": 2146,
      "15": 2147,
      "Ad": 2148,
      "Away": 2149,
      "ALL": 2150,
      "Bless": 2151,
      "Des": 2152,
      "ET": 2153,
      "Fair": 2154,
      "Get": 2155,
      "IX": 2156,
      "IANA": 2157,
      "Mard": 2158,
      "Must": 2159,
      "Menas": 2160,
      "Pr": 2161,
      "RO": 2162,
      "Res": 2163,
      "See": 2164,
      "Tru": 2165,
      "Vent": 2166,
      "ade": 2167,
      "bs": 2168,
      "bare": 2169,
      "bility": 2170,
      "cra": 2171,
      "coo": 2172,
      "cry": 2173,
      "cuck": 2174,
      "coward": 2175,
      "dess": 2176,
      "dower": 2177,
      "eth": 2178,
      "ell": 2179,
      "ff": 2180,
      "fight": 2181,
      "fif": 2182,
      "fence": 2183,
      "fish": 2184,
      "fond": 2185,
      "fits": 2186,
      "fancy": 2187,
      "ges": 2188,
      "gle": 2189,
      "gent": 2190,
      "hung": 2191,
      "kne": 2192,
      "lin": 2193,
      "lcome": 2194,
      "mal": 2195,
      "mount": 2196,
      "mpet": 2197,
      "ny": 2198,
      "obe": 2199,
      "ope": 2200,
      "ople": 2201,
      "ply": 2202,
      "paid": 2203,
      "rt": 2204,
      "rend": 2205,
      "sma": 2206,
      "smo": 2207,
      "sence": 2208,
      "tin": 2209,
      "try": 2210,
      "vain": 2211,
      "vill": 2212,
      "thor": 2213,
      "throw": 2214,
      "thither": 2215,
      "inj": 2216,
      "inch": 2217,
      "inher": 2218,
      "inform": 2219,
      "anc": 2220,
      "anon": 2221,
      "orous": 2222,
      "ench": 2223,
      "issue": 2224,
      "aring": 2225,
      "ared": 2226,
      "stood": 2227,
      "stop": 2228,
      "reg": 2229,
      "reck": 2230,
      "revo": 2231,
      "ingly": 2232,
      "hair": 2233,
      "beg": 2234,
      "beard": 2235,
      "belong": 2236,
      "becomes": 2237,
      "begg": 2238,
      "leg": 2239,
      "widow": 2240,
      "edge": 2241,
      "utes": 2242,
      "forfeit": 2243,
      "Thine": 2244,
      "liv": 2245,
      "liant": 2246,
      "ours": 2247,
      "alter": 2248,
      "although": 2249,
      "rage": 2250,
      "enty": 2251,
      "making": 2252,
      "Whom": 2253,
      "tern": 2254,
      "ooth": 2255,
      "fee": 2256,
      "idle": 2257,
      "idius": 2258,
      "ARD": 2259,
      "ended": 2260,
      "shape": 2261,
      "people": 2262,
      "rude": 2263,
      "fast": 2264,
      "fame": 2265,
      "shine": 2266,
      "moan": 2267,
      "move": 2268,
      "poison": 2269,
      "conce": 2270,
      "roses": 2271,
      "unuch": 2272,
      "trumpet": 2273,
      "sayer": 2274,
      "goodly": 2275,
      "STEW": 2276,
      "appet": 2277,
      "aste": 2278,
      "vious": 2279,
      "plete": 2280,
      "six": 2281,
      "dign": 2282,
      "proof": 2283,
      "proper": 2284,
      "Nothing": 2285,
      "disdain": 2286,
      "spent": 2287,
      "sweets": 2288,
      "sweetest": 2289,
      "ext": 2290,
      "fic": 2291,
      "fig": 2292,
      "umph": 2293,
      "perf": 2294,
      "wherein": 2295,
      "sometime": 2296,
      "desperate": 2297,
      "kings": 2298,
      "kingdom": 2299,
      "Welcome": 2300,
      "lived": 2301,
      "scope": 2302,
      "speaking": 2303,
      "hot": 2304,
      "gues": 2305,
      "guard": 2306,
      "action": 2307,
      "abund": 2308,
      "absence": 2309,
      "merry": 2310,
      "repent": 2311,
      "reputation": 2312,
      "cost": 2313,
      "liege": 2314,
      "ations": 2315,
      "monsieur": 2316,
      "Dost": 2317,
      "farther": 2318,
      "leness": 2319,
      "plague": 2320,
      "pict": 2321,
      "seeming": 2322,
      "gentleman": 2323,
      "bloody": 2324,
      "brings": 2325,
      "buy": 2326,
      "pense": 2327,
      "remedy": 2328,
      "brain": 2329,
      "painted": 2330,
      "commend": 2331,
      "trait": 2332,
      "cargo": 2333,
      "carry": 2334,
      "wishes": 2335,
      "While": 2336,
      "whilst": 2337,
      "essengers": 2338,
      "passion": 2339,
      "coun": 2340,
      "remember": 2341,
      "asked": 2342,
      "confess": 2343,
      "possi": 2344,
      "excellent": 2345,
      "despite": 2346,
      "thrive": 2347,
      "choice": 2348,
      "groan": 2349,
      "street": 2350,
      "MARIANA": 2351,
      "twain": 2352,
      "twenty": 2353,
      "instant": 2354,
      "Although": 2355,
      "touches": 2356,
      "thief": 2357,
      "beaten": 2358,
      "acquaint": 2359,
      "several": 2360,
      "goddess": 2361,
      "Attendants": 2362,
      "brief": 2363,
      "crowned": 2364,
      "frame": 2365,
      "hurt": 2366,
      "judgment": 2367,
      "wrinkles": 2368,
      "particular": 2369,
      "Indeed": 2370,
      "Monsieur": 2371,
      "mouth": 2372,
      "Mardian": 2373,
      "Ventidius": 2374,
      "STEWARD": 2375,
      ".’": 2376,
      "Art": 2377,
      "Ch": 2378,
      "Call": 2379,
      "Cup": 2380,
      "Dear": 2381,
      "Fir": 2382,
      "Fare": 2383,
      "Hap": 2384,
      "Ja": 2385,
      "Loo": 2386,
      "Out": 2387,
      "PH": 2388,
      "Per": 2389,
      "Pro": 2390,
      "Pardon": 2391,
      "Saint": 2392,
      "Sooth": 2393,
      "Tom": 2394,
      "Tri": 2395,
      "Vir": 2396,
      "VII": 2397,
      "WE": 2398,
      "alike": 2399,
      "bt": 2400,
      "bow": 2401,
      "bas": 2402,
      "bla": 2403,
      "bast": 2404,
      "bount": 2405,
      "bond": 2406,
      "borrow": 2407,
      "cut": 2408,
      "cke": 2409,
      "cal": 2410,
      "cent": 2411,
      "cine": 2412,
      "cil": 2413,
      "cast": 2414,
      "chaste": 2415,
      "dle": 2416,
      "ded": 2417,
      "dri": 2418,
      "dro": 2419,
      "dust": 2420,
      "dress": 2421,
      "dings": 2422,
      "drown": 2423,
      "drun": 2424,
      "ev": 2425,
      "eas": 2426,
      "eunuch": 2427,
      "fas": 2428,
      "fold": 2429,
      "frown": 2430,
      "flame": 2431,
      "fron": 2432,
      "hu": 2433,
      "hund": 2434,
      "hue": 2435,
      "iam": 2436,
      "ife": 2437,
      "ick": 2438,
      "las": 2439,
      "loud": 2440,
      "luck": 2441,
      "mid": 2442,
      "mony": 2443,
      "match": 2444,
      "messengers": 2445,
      "nay": 2446,
      "plo": 2447,
      "pour": 2448,
      "pent": 2449,
      "pace": 2450,
      "prep": 2451,
      "pub": 2452,
      "sk": 2453,
      "sn": 2454,
      "san": 2455,
      "sor": 2456,
      "sway": 2457,
      "ship": 2458,
      "soft": 2459,
      "sister": 2460,
      "tr": 2461,
      "tort": 2462,
      "ume": 2463,
      "val": 2464,
      "vest": 2465,
      "vise": 2466,
      "vass": 2467,
      "wood": 2468,
      "watch": 2469,
      "ythee": 2470,
      "yie": 2471,
      "zing": 2472,
      "thorns": 2473,
      "ouds": 2474,
      "infin": 2475,
      "ering": 2476,
      "anion": 2477,
      "encounter": 2478,
      "army": 2479,
      "oned": 2480,
      "lling": 2481,
      "stom": 2482,
      "stir": 2483,
      "stone": 2484,
      "vet": 2485,
      "vey": 2486,
      "token": 2487,
      "nose": 2488,
      "heed": 2489,
      "held": 2490,
      "heel": 2491,
      "seld": 2492,
      "ander": 2493,
      "melan": 2494,
      "requ": 2495,
      "recover": 2496,
      "ited": 2497,
      "bel": 2498,
      "bell": 2499,
      "beast": 2500,
      "bears": 2501,
      "behind": 2502,
      "leap": 2503,
      "hie": 2504,
      "hion": 2505,
      "chance": 2506,
      "chang": 2507,
      "owes": 2508,
      "uten": 2509,
      "utter": 2510,
      "losing": 2511,
      "Think": 2512,
      "Three": 2513,
      "depart": 2514,
      "defect": 2515,
      "decease": 2516,
      "defence": 2517,
      "weight": 2518,
      "weary": 2519,
      "lion": 2520,
      "whence": 2521,
      "ries": 2522,
      "ety": 2523,
      "alous": 2524,
      "withal": 2525,
      "doom": 2526,
      "ties": 2527,
      "tied": 2528,
      "ames": 2529,
      "ample": 2530,
      "amiss": 2531,
      "amorous": 2532,
      "lying": 2533,
      "iding": 2534,
      "idleness": 2535,
      "esteem": 2536,
      "advantage": 2537,
      "prin": 2538,
      "prince": 2539,
      "prison": 2540,
      "neigh": 2541,
      "Their": 2542,
      "ending": 2543,
      "uses": 2544,
      "peare": 2545,
      "ury": 2546,
      "ural": 2547,
      "oney": 2548,
      "butto": 2549,
      "ckle": 2550,
      "fail": 2551,
      "poses": 2552,
      "morning": 2553,
      "laid": 2554,
      "knowing": 2555,
      "canker": 2556,
      "contempt": 2557,
      "comfor": 2558,
      "compe": 2559,
      "ilt": 2560,
      "PART": 2561,
      "ards": 2562,
      "wouldst": 2563,
      "teach": 2564,
      "boast": 2565,
      "vide": 2566,
      "therein": 2567,
      "safe": 2568,
      "plead": 2569,
      "dies": 2570,
      "prop": 2571,
      "speci": 2572,
      "Noble": 2573,
      "Into": 2574,
      "DIAN": 2575,
      "table": 2576,
      "disease": 2577,
      "spur": 2578,
      "spite": 2579,
      "perpet": 2580,
      "perceive": 2581,
      "wherefore": 2582,
      "sometimes": 2583,
      "serious": 2584,
      "fairest": 2585,
      "blow": 2586,
      "blest": 2587,
      "Being": 2588,
      "hopes": 2589,
      "iment": 2590,
      "guess": 2591,
      "flow": 2592,
      "pping": 2593,
      "undone": 2594,
      "Isis": 2595,
      "patient": 2596,
      "tended": 2597,
      "civious": 2598,
      "breathe": 2599,
      "mercy": 2600,
      "tyrant": 2601,
      "everything": 2602,
      "repair": 2603,
      "praised": 2604,
      "praises": 2605,
      "copy": 2606,
      "presence": 2607,
      "heavenly": 2608,
      "anything": 2609,
      "ornament": 2610,
      "mber": 2611,
      "hearse": 2612,
      "prime": 2613,
      "finds": 2614,
      "monstr": 2615,
      "monument": 2616,
      "arms": 2617,
      "gilded": 2618,
      "worthiness": 2619,
      "called": 2620,
      "powerful": 2621,
      "contro": 2622,
      "seems": 2623,
      "undertake": 2624,
      "gentlemen": 2625,
      "knife": 2626,
      "rumpet": 2627,
      "tongues": 2628,
      "triumph": 2629,
      "whole": 2630,
      "Shakes": 2631,
      "William": 2632,
      "intents": 2633,
      "horses": 2634,
      "subst": 2635,
      "umbly": 2636,
      "reports": 2637,
      "presently": 2638,
      "ages": 2639,
      "grew": 2640,
      "join": 2641,
      "sickness": 2642,
      "brand": 2643,
      "sinful": 2644,
      "turns": 2645,
      "spirits": 2646,
      "RIUS": 2647,
      "creatures": 2648,
      "compare": 2649,
      "companion": 2650,
      "thankful": 2651,
      "golden": 2652,
      "minutes": 2653,
      "despair": 2654,
      "deserv": 2655,
      "import": 2656,
      "takes": 2657,
      "attendant": 2658,
      "offic": 2659,
      "choly": 2660,
      "cription": 2661,
      "valiant": 2662,
      "witness": 2663,
      "meaning": 2664,
      "scarf": 2665,
      "scarce": 2666,
      "gross": 2667,
      "stol": 2668,
      "quality": 2669,
      "MARDIAN": 2670,
      "foes": 2671,
      "instru": 2672,
      "promise": 2673,
      "contented": 2674,
      "Made": 2675,
      "removed": 2676,
      "concern": 2677,
      "acquainted": 2678,
      "counterfeit": 2679,
      "twice": 2680,
      "urious": 2681,
      "rewd": 2682,
      "constant": 2683,
      "mourn": 2684,
      "numbers": 2685,
      "wait": 2686,
      "antique": 2687,
      "trans": 2688,
      "laughed": 2689,
      "language": 2690,
      "damn": 2691,
      "image": 2692,
      "deceived": 2693,
      "large": 2694,
      "spring": 2695,
      "medicine": 2696,
      "guilty": 2697,
      "claims": 2698,
      "cuckold": 2699,
      "fifty": 2700,
      "inherit": 2701,
      "appetite": 2702,
      "abundance": 2703,
      "Cupid": 2704,
      "First": 2705,
      "Jaques": 2706,
      "Soothsayer": 2707,
      "fashion": 2708,
      "hundred": 2709,
      "public": 2710,
      "sancti": 2711,
      "sorry": 2712,
      "valour": 2713,
      "vassal": 2714,
      "infinite": 2715,
      "stomach": 2716,
      "seldom": 2717,
      "melancholy": 2718,
      "Shakespeare": 2719,
      "!—": 2720,
      "**": 2721,
      "AM": 2722,
      "Apri": 2723,
      "AVI": 2724,
      "Bet": 2725,
      "Book": 2726,
      "DE": 2727,
      "Eng": 2728,
      "FO": 2729,
      "Ger": 2730,
      "ILO": 2731,
      "IUS": 2732,
      "Jo": 2733,
      "Mis": 2734,
      "Makes": 2735,
      "Ne": 2736,
      "Nar": 2737,
      "OCT": 2738,
      "Pri": 2739,
      "Pity": 2740,
      "Ri": 2741,
      "Rom": 2742,
      "Ret": 2743,
      "Sit": 2744,
      "Twas": 2745,
      "VEN": 2746,
      "Whether": 2747,
      "_B": 2748,
      "_Flourish": 2749,
      "ali": 2750,
      "alive": 2751,
      "bat": 2752,
      "bal": 2753,
      "bent": 2754,
      "bly": 2755,
      "bind": 2756,
      "bath": 2757,
      "boot": 2758,
      "cas": 2759,
      "cate": 2760,
      "cord": 2761,
      "close": 2762,
      "dar": 2763,
      "dge": 2764,
      "dden": 2765,
      "emb": 2766,
      "equal": 2767,
      "fed": 2768,
      "fain": 2769,
      "fru": 2770,
      "furn": 2771,
      "fts": 2772,
      "fled": 2773,
      "flies": 2774,
      "ger": 2775,
      "gate": 2776,
      "gard": 2777,
      "iest": 2778,
      "kis": 2779,
      "ked": 2780,
      "kna": 2781,
      "lish": 2782,
      "length": 2783,
      "mi": 2784,
      "mp": 2785,
      "mat": 2786,
      "messenger": 2787,
      "nur": 2788,
      "ot": 2789,
      "pare": 2790,
      "pure": 2791,
      "powers": 2792,
      "pale": 2793,
      "ris": 2794,
      "rate": 2795,
      "rene": 2796,
      "rough": 2797,
      "sw": 2798,
      "sli": 2799,
      "snow": 2800,
      "squ": 2801,
      "slight": 2802,
      "sides": 2803,
      "tro": 2804,
      "twas": 2805,
      "twere": 2806,
      "tents": 2807,
      "taking": 2808,
      "taste": 2809,
      "vis": 2810,
      "vate": 2811,
      "vish": 2812,
      "vouch": 2813,
      "wing": 2814,
      "wal": 2815,
      "wra": 2816,
      "west": 2817,
      "wink": 2818,
      "wert": 2819,
      "walls": 2820,
      "xion": 2821,
      "ythe": 2822,
      "yle": 2823,
      "zen": 2824,
      "”,": 2825,
      "ths": 2826,
      "infl": 2827,
      "intell": 2828,
      "inward": 2829,
      "inner": 2830,
      "erve": 2831,
      "erce": 2832,
      "anew": 2833,
      "org": 2834,
      "ored": 2835,
      "thes": 2836,
      "enforce": 2837,
      "esti": 2838,
      "attempt": 2839,
      "ones": 2840,
      "lled": 2841,
      "sts": 2842,
      "stret": 2843,
      "strumpet": 2844,
      "style": 2845,
      "vex": 2846,
      "tom": 2847,
      "top": 2848,
      "toil": 2849,
      "heir": 2850,
      "height": 2851,
      "sem": 2852,
      "seal": 2853,
      "seill": 2854,
      "sequ": 2855,
      "methinks": 2856,
      "rect": 2857,
      "reign": 2858,
      "rehearse": 2859,
      "ites": 2860,
      "haply": 2861,
      "begu": 2862,
      "behalf": 2863,
      "level": 2864,
      "leads": 2865,
      "wil": 2866,
      "wicked": 2867,
      "owe": 2868,
      "assu": 2869,
      "assure": 2870,
      "aside": 2871,
      "forgive": 2872,
      "forbear": 2873,
      "forsake": 2874,
      "forsworn": 2875,
      "lding": 2876,
      "dep": 2877,
      "deal": 2878,
      "defe": 2879,
      "deem": 2880,
      "delay": 2881,
      "weeds": 2882,
      "lib": 2883,
      "limb": 2884,
      "licy": 2885,
      "ride": 2886,
      "sol": 2887,
      "sooth": 2888,
      "wither": 2889,
      "race": 2890,
      "dol": 2891,
      "doing": 2892,
      "maine": 2893,
      "tering": 2894,
      "terms": 2895,
      "tian": 2896,
      "tidings": 2897,
      "verted": 2898,
      "amb": 2899,
      "ambus": 2900,
      "sull": 2901,
      "suspe": 2902,
      "suade": 2903,
      "feed": 2904,
      "felt": 2905,
      "feeding": 2906,
      "feather": 2907,
      "idence": 2908,
      "ests": 2909,
      "adies": 2910,
      "adie": 2911,
      "advice": 2912,
      "admir": 2913,
      "ney": 2914,
      "necess": 2915,
      "shade": 2916,
      "urge": 2917,
      "wore": 2918,
      "works": 2919,
      "worms": 2920,
      "fade": 2921,
      "ills": 2922,
      "shun": 2923,
      "shown": 2924,
      "shrewd": 2925,
      "mock": 2926,
      "poet": 2927,
      "poster": 2928,
      "policy": 2929,
      "quity": 2930,
      "quoth": 2931,
      "cons": 2932,
      "conven": 2933,
      "consent": 2934,
      "rot": 2935,
      "aken": 2936,
      "comple": 2937,
      "unless": 2938,
      "unseen": 2939,
      "unknown": 2940,
      "unused": 2941,
      "until": 2942,
      "iful": 2943,
      "seemed": 2944,
      "appe": 2945,
      "IRD": 2946,
      "evermore": 2947,
      "aster": 2948,
      "vial": 2949,
      "vices": 2950,
      "sacred": 2951,
      "sigh": 2952,
      "dial": 2953,
      "prog": 2954,
      "prov": 2955,
      "proved": 2956,
      "protest": 2957,
      "Ask": 2958,
      "Exce": 2959,
      "outlive": 2960,
      "distill": 2961,
      "disaster": 2962,
      "spare": 2963,
      "ounds": 2964,
      "ishes": 2965,
      "beauties": 2966,
      "fix": 2967,
      "fiery": 2968,
      "hadst": 2969,
      "perfection": 2970,
      "thinking": 2971,
      "serv": 2972,
      "fairs": 2973,
      "bling": 2974,
      "blunt": 2975,
      "Offic": 2976,
      "Beaut": 2977,
      "tions": 2978,
      "scri": 2979,
      "science": 2980,
      "scythe": 2981,
      "mark": 2982,
      "guest": 2983,
      "acy": 2984,
      "acter": 2985,
      "account": 2986,
      "affor": 2987,
      "affection": 2988,
      "affairs": 2989,
      "abuse": 2990,
      "breaking": 2991,
      "nights": 2992,
      "Wherein": 2993,
      "check": 2994,
      "price": 2995,
      "aud": 2996,
      "author": 2997,
      "lacked": 2998,
      "igence": 2999,
      "monarch": 3000,
      "ginity": 3001,
      "Whoever": 3002,
      "gious": 3003,
      "grie": 3004,
      "rightly": 3005,
      "sings": 3006,
      "empire": 3007,
      "warrant": 3008,
      "THIRD": 3009,
      "pie": 3010,
      "pick": 3011,
      "contra": 3012,
      "looked": 3013,
      "chief": 3014,
      "higher": 3015,
      "beside": 3016,
      "younger": 3017,
      "quiet": 3018,
      "buds": 3019,
      "virtues": 3020,
      "preter": 3021,
      "prevent": 3022,
      "petty": 3023,
      "babe": 3024,
      "bail": 3025,
      "minds": 3026,
      "hush": 3027,
      "painting": 3028,
      "stronger": 3029,
      "strongly": 3030,
      "surety": 3031,
      "character": 3032,
      "subscri": 3033,
      "reported": 3034,
      "ager": 3035,
      "whipped": 3036,
      "courtes": 3037,
      "lays": 3038,
      "treason": 3039,
      "denied": 3040,
      "object": 3041,
      "obliv": 3042,
      "strife": 3043,
      "itions": 3044,
      "learn": 3045,
      "learning": 3046,
      "brass": 3047,
      "slander": 3048,
      "remembered": 3049,
      "justice": 3050,
      "survey": 3051,
      "children": 3052,
      "company": 3053,
      "gaze": 3054,
      "lends": 3055,
      "wanton": 3056,
      "throne": 3057,
      "backward": 3058,
      "Something": 3059,
      "clothes": 3060,
      "winds": 3061,
      "deserve": 3062,
      "years": 3063,
      "thrice": 3064,
      "attending": 3065,
      "chamber": 3066,
      "crime": 3067,
      "succe": 3068,
      "questions": 3069,
      "wondrous": 3070,
      "stocks": 3071,
      "stream": 3072,
      "qualities": 3073,
      "Dumaine": 3074,
      "Marseill": 3075,
      "bones": 3076,
      "Alas": 3077,
      "Gentleman": 3078,
      "Gentlemen": 3079,
      "garments": 3080,
      "silence": 3081,
      "healthful": 3082,
      "receiv": 3083,
      "constancy": 3084,
      "bravely": 3085,
      "physic": 3086,
      "athed": 3087,
      "fetch": 3088,
      "filled": 3089,
      "number": 3090,
      "interpreter": 3091,
      "derive": 3092,
      "modesty": 3093,
      "laugh": 3094,
      "MENAS": 3095,
      "clouds": 3096,
      "cross": 3097,
      "murd": 3098,
      "pitied": 3099,
      "satis": 3100,
      "errors": 3101,
      "Among": 3102,
      "Steal": 3103,
      "clean": 3104,
      "person": 3105,
      "wretched": 3106,
      "third": 3107,
      "solemn": 3108,
      "unkindness": 3109,
      "saucy": 3110,
      "experience": 3111,
      "ignorance": 3112,
      "soldiership": 3113,
      "approaches": 3114,
      "physician": 3115,
      "difference": 3116,
      "cool": 3117,
      "render": 3118,
      "small": 3119,
      "villain": 3120,
      "revolt": 3121,
      "beggar": 3122,
      "picture": 3123,
      "acquaintance": 3124,
      "Virginity": 3125,
      "WELL": 3126,
      "drunk": 3127,
      "easy": 3128,
      "lascivious": 3129,
      "midnight": 3130,
      "yield": 3131,
      "recovered": 3132,
      "neighbour": 3133,
      "buttock": 3134,
      "special": 3135,
      "perpetual": 3136,
      "monstrous": 3137,
      "substance": 3138,
      "April": 3139,
      "English": 3140,
      "Misen": 3141,
      "OCTAVI": 3142,
      "Roman": 3143,
      "Return": 3144,
      "fruit": 3145,
      "square": 3146,
      "intelligence": 3147,
      "assured": 3148,
      "limbs": 3149,
      "adieu": 3150,
      "complexion": 3151,
      "authority": 3152,
      "oblivion": 3153,
      "Marseilles": 3154,
      "!’": 3155,
      ",’": 3156,
      ",”": 3157,
      ";—": 3158,
      "AT": 3159,
      "Au": 3160,
      "Amen": 3161,
      "BE": 3162,
      "BO": 3163,
      "BOTH": 3164,
      "Cor": 3165,
      "Chi": 3166,
      "Could": 3167,
      "CRA": 3168,
      "DO": 3169,
      "Dou": 3170,
      "Dut": 3171,
      "Dem": 3172,
      "Draw": 3173,
      "ECRA": 3174,
      "FE": 3175,
      "Fe": 3176,
      "Full": 3177,
      "Fie": 3178,
      "GH": 3179,
      "Gu": 3180,
      "General": 3181,
      "Ha": 3182,
      "Hold": 3183,
      "Hence": 3184,
      "Him": 3185,
      "Hark": 3186,
      "Humbly": 3187,
      "IL": 3188,
      "IDI": 3189,
      "IGH": 3190,
      "Ke": 3191,
      "Lie": 3192,
      "ME": 3193,
      "Man": 3194,
      "MER": 3195,
      "Many": 3196,
      "MET": 3197,
      "None": 3198,
      "Nature": 3199,
      "OR": 3200,
      "Pl": 3201,
      "Phi": 3202,
      "Past": 3203,
      "Page": 3204,
      "Qu": 3205,
      "RE": 3206,
      "Rather": 3207,
      "Si": 3208,
      "Ser": 3209,
      "Show": 3210,
      "Stri": 3211,
      "Still": 3212,
      "SIX": 3213,
      "TE": 3214,
      "Ten": 3215,
      "Tus": 3216,
      "TES": 3217,
      "TUS": 3218,
      "Tell": 3219,
      "Wr": 3220,
      "Wilt": 3221,
      "ald": 3222,
      "afe": 3223,
      "ail": 3224,
      "aily": 3225,
      "awhile": 3226,
      "bene": 3227,
      "bred": 3228,
      "bable": 3229,
      "bought": 3230,
      "blot": 3231,
      "cere": 3232,
      "cul": 3233,
      "city": 3234,
      "crow": 3235,
      "coll": 3236,
      "cust": 3237,
      "caught": 3238,
      "curious": 3239,
      "dest": 3240,
      "dun": 3241,
      "dul": 3242,
      "dows": 3243,
      "daily": 3244,
      "ele": 3245,
      "eBook": 3246,
      "fan": 3247,
      "fre": 3248,
      "fare": 3249,
      "fought": 3250,
      "ffet": 3251,
      "gall": 3252,
      "gers": 3253,
      "har": 3254,
      "hom": 3255,
      "hits": 3256,
      "ii": 3257,
      "ial": 3258,
      "ilor": 3259,
      "ible": 3260,
      "ices": 3261,
      "ized": 3262,
      "iliar": 3263,
      "iety": 3264,
      "idol": 3265,
      "ja": 3266,
      "jour": 3267,
      "jured": 3268,
      "kno": 3269,
      "knot": 3270,
      "kos": 3271,
      "lent": 3272,
      "latter": 3273,
      "lud": 3274,
      "mand": 3275,
      "ming": 3276,
      "mut": 3277,
      "mill": 3278,
      "mood": 3279,
      "mate": 3280,
      "mers": 3281,
      "mies": 3282,
      "mmed": 3283,
      "mute": 3284,
      "mired": 3285,
      "masked": 3286,
      "money": 3287,
      "nine": 3288,
      "nig": 3289,
      "nought": 3290,
      "oc": 3291,
      "oce": 3292,
      "open": 3293,
      "phi": 3294,
      "pas": 3295,
      "pine": 3296,
      "pun": 3297,
      "pul": 3298,
      "port": 3299,
      "plot": 3300,
      "rar": 3301,
      "ratch": 3302,
      "rary": 3303,
      "sy": 3304,
      "shi": 3305,
      "sion": 3306,
      "sort": 3307,
      "ssed": 3308,
      "sits": 3309,
      "swords": 3310,
      "tar": 3311,
      "tent": 3312,
      "tall": 3313,
      "tart": 3314,
      "tish": 3315,
      "tance": 3316,
      "tres": 3317,
      "uence": 3318,
      "usur": 3319,
      "vul": 3320,
      "vity": 3321,
      "vation": 3322,
      "vised": 3323,
      "wan": 3324,
      "wran": 3325,
      "wench": 3326,
      "yond": 3327,
      "’,": 3328,
      "’.": 3329,
      "thru": 3330,
      "threat": 3331,
      "thie": 3332,
      "threw": 3333,
      "oured": 3334,
      "inv": 3335,
      "inno": 3336,
      "ints": 3337,
      "infection": 3338,
      "ores": 3339,
      "orne": 3340,
      "enus": 3341,
      "ences": 3342,
      "enjoy": 3343,
      "ision": 3344,
      "atage": 3345,
      "attain": 3346,
      "arre": 3347,
      "arri": 3348,
      "start": 3349,
      "stru": 3350,
      "stro": 3351,
      "vell": 3352,
      "veins": 3353,
      "toward": 3354,
      "tomorrow": 3355,
      "noon": 3356,
      "nobl": 3357,
      "noise": 3358,
      "nobility": 3359,
      "nobly": 3360,
      "sell": 3361,
      "separ": 3362,
      "search": 3363,
      "secre": 3364,
      "melt": 3365,
      "metal": 3366,
      "ref": 3367,
      "rees": 3368,
      "rear": 3369,
      "reli": 3370,
      "repe": 3371,
      "reven": 3372,
      "reco": 3373,
      "requi": 3374,
      "replete": 3375,
      "record": 3376,
      "haw": 3377,
      "hail": 3378,
      "habit": 3379,
      "beam": 3380,
      "beest": 3381,
      "beque": 3382,
      "myster": 3383,
      "wild": 3384,
      "wixt": 3385,
      "widower": 3386,
      "chest": 3387,
      "chur": 3388,
      "cept": 3389,
      "uttish": 3390,
      "asing": 3391,
      "forward": 3392,
      "ldo": 3393,
      "lover": 3394,
      "loqu": 3395,
      "loses": 3396,
      "lovers": 3397,
      "noted": 3398,
      "deter": 3399,
      "decei": 3400,
      "weed": 3401,
      "wears": 3402,
      "lik": 3403,
      "lim": 3404,
      "lied": 3405,
      "lice": 3406,
      "liking": 3407,
      "rid": 3408,
      "rible": 3409,
      "along": 3410,
      "always": 3411,
      "rase": 3412,
      "raid": 3413,
      "raising": 3414,
      "dote": 3415,
      "mak": 3416,
      "mage": 3417,
      "yourselves": 3418,
      "Whate": 3419,
      "tie": 3420,
      "vern": 3421,
      "vert": 3422,
      "aming": 3423,
      "among": 3424,
      "allow": 3425,
      "allel": 3426,
      "sus": 3427,
      "sugg": 3428,
      "sudden": 3429,
      "feature": 3430,
      "ider": 3431,
      "ided": 3432,
      "herald": 3433,
      "estate": 3434,
      "estee": 3435,
      "estors": 3436,
      "adj": 3437,
      "admit": 3438,
      "nowledge": 3439,
      "negle": 3440,
      "endure": 3441,
      "using": 3442,
      "usive": 3443,
      "shames": 3444,
      "shadows": 3445,
      "peep": 3446,
      "rue": 3447,
      "urst": 3448,
      "uring": 3449,
      "urvy": 3450,
      "worser": 3451,
      "worship": 3452,
      "shut": 3453,
      "shore": 3454,
      "shines": 3455,
      "moon": 3456,
      "moving": 3457,
      "moved": 3458,
      "motive": 3459,
      "pox": 3460,
      "post": 3461,
      "posing": 3462,
      "polit": 3463,
      "morn": 3464,
      "lap": 3465,
      "laught": 3466,
      "cant": 3467,
      "consu": 3468,
      "conqu": 3469,
      "constra": 3470,
      "condem": 3471,
      "conquest": 3472,
      "confirm": 3473,
      "conscience": 3474,
      "rob": 3475,
      "road": 3476,
      "rogues": 3477,
      "mud": 3478,
      "END": 3479,
      "composition": 3480,
      "unjust": 3481,
      "unworthy": 3482,
      "ified": 3483,
      "manif": 3484,
      "manner": 3485,
      "teen": 3486,
      "teous": 3487,
      "teeth": 3488,
      "bled": 3489,
      "blem": 3490,
      "aphor": 3491,
      "approve": 3492,
      "bot": 3493,
      "govern": 3494,
      "vius": 3495,
      "victor": 3496,
      "sail": 3497,
      "plea": 3498,
      "dig": 3499,
      "diest": 3500,
      "dience": 3501,
      "direct": 3502,
      "thens": 3503,
      "produ": 3504,
      "process": 3505,
      "looking": 3506,
      "tax": 3507,
      "tailor": 3508,
      "Exeunt": 3509,
      "discover": 3510,
      "disposition": 3511,
      "distin": 3512,
      "distance": 3513,
      "spark": 3514,
      "enemies": 3515,
      "sweetly": 3516,
      "excess": 3517,
      "expressed": 3518,
      "expense": 3519,
      "explo": 3520,
      "example": 3521,
      "file": 3522,
      "fixed": 3523,
      "fierce": 3524,
      "umn": 3525,
      "ump": 3526,
      "umvir": 3527,
      "perjured": 3528,
      "whereof": 3529,
      "design": 3530,
      "despatch": 3531,
      "desired": 3532,
      "description": 3533,
      "serpent": 3534,
      "Came": 3535,
      "Oft": 3536,
      "Anton": 3537,
      "Because": 3538,
      "fulness": 3539,
      "scratch": 3540,
      "scurvy": 3541,
      "host": 3542,
      "impress": 3543,
      "march": 3544,
      "marvel": 3545,
      "ached": 3546,
      "dearer": 3547,
      "Isbel": 3548,
      "afar": 3549,
      "affect": 3550,
      "afraid": 3551,
      "untrue": 3552,
      "abhor": 3553,
      "abide": 3554,
      "breed": 3555,
      "breeds": 3556,
      "breeding": 3557,
      "mighty": 3558,
      "mightily": 3559,
      "tyran": 3560,
      "nable": 3561,
      "naught": 3562,
      "nation": 3563,
      "native": 3564,
      "natural": 3565,
      "pract": 3566,
      "practi": 3567,
      "Whereto": 3568,
      "Wherefore": 3569,
      "cozen": 3570,
      "lieve": 3571,
      "tells": 3572,
      "plant": 3573,
      "reser": 3574,
      "residing": 3575,
      "womb": 3576,
      "hasten": 3577,
      "Parthi": 3578,
      "courage": 3579,
      "stratage": 3580,
      "prize": 3581,
      "privile": 3582,
      "private": 3583,
      "poorer": 3584,
      "Thyself": 3585,
      "attered": 3586,
      "emp": 3587,
      "warlike": 3588,
      "purposes": 3589,
      "contin": 3590,
      "contain": 3591,
      "contents": 3592,
      "contrary": 3593,
      "besie": 3594,
      "bareness": 3595,
      "bud": 3596,
      "bui": 3597,
      "trial": 3598,
      "tricks": 3599,
      "cyon": 3600,
      "steep": 3601,
      "steel": 3602,
      "brains": 3603,
      "kindly": 3604,
      "prey": 3605,
      "youthful": 3606,
      "broke": 3607,
      "broken": 3608,
      "jealous": 3609,
      "falsehood": 3610,
      "painter": 3611,
      "commit": 3612,
      "commits": 3613,
      "foolish": 3614,
      "capable": 3615,
      "captive": 3616,
      "inting": 3617,
      "fearing": 3618,
      "happier": 3619,
      "bids": 3620,
      "bidding": 3621,
      "grows": 3622,
      "growth": 3623,
      "phrase": 3624,
      "helm": 3625,
      "charter": 3626,
      "virgins": 3627,
      "Whither": 3628,
      "whipping": 3629,
      "parallel": 3630,
      "voice": 3631,
      "Sirrah": 3632,
      "observe": 3633,
      "observ": 3634,
      "strike": 3635,
      "velvet": 3636,
      "fellows": 3637,
      "elsewhere": 3638,
      "sins": 3639,
      "turned": 3640,
      "vilest": 3641,
      "Only": 3642,
      "vours": 3643,
      "surfeit": 3644,
      "swearing": 3645,
      "played": 3646,
      "created": 3647,
      "creation": 3648,
      "temper": 3649,
      "wrongs": 3650,
      "falls": 3651,
      "gav": 3652,
      "minister": 3653,
      "wanting": 3654,
      "throned": 3655,
      "confessed": 3656,
      "confined": 3657,
      "confident": 3658,
      "Frenchman": 3659,
      "cloy": 3660,
      "clock": 3661,
      "window": 3662,
      "windows": 3663,
      "reading": 3664,
      "except": 3665,
      "despised": 3666,
      "deserving": 3667,
      "deserved": 3668,
      "imped": 3669,
      "impud": 3670,
      "writes": 3671,
      "sorrows": 3672,
      "yell": 3673,
      "delivers": 3674,
      "suffi": 3675,
      "followed": 3676,
      "actor": 3677,
      "chase": 3678,
      "freely": 3679,
      "humility": 3680,
      "wastes": 3681,
      "addition": 3682,
      "griefs": 3683,
      "commands": 3684,
      "ctive": 3685,
      "casement": 3686,
      "eclip": 3687,
      "stole": 3688,
      "conditions": 3689,
      "bonds": 3690,
      "doubt": 3691,
      "fox": 3692,
      "lately": 3693,
      "profan": 3694,
      "profit": 3695,
      "profess": 3696,
      "profession": 3697,
      "promises": 3698,
      "Complete": 3699,
      "rash": 3700,
      "wiser": 3701,
      "thick": 3702,
      "remove": 3703,
      "concord": 3704,
      "berg": 3705,
      "birds": 3706,
      "certainty": 3707,
      "fingers": 3708,
      "famine": 3709,
      "familiar": 3710,
      "hymn": 3711,
      "mirth": 3712,
      "mirac": 3713,
      "silent": 3714,
      "silver": 3715,
      "uries": 3716,
      "receives": 3717,
      "receipt": 3718,
      "sooner": 3719,
      "suppose": 3720,
      "supposed": 3721,
      "confounds": 3722,
      "blessing": 3723,
      "effected": 3724,
      "succession": 3725,
      "Dead": 3726,
      "Methinks": 3727,
      "frail": 3728,
      "mourning": 3729,
      "wail": 3730,
      "antiquity": 3731,
      "hideous": 3732,
      "eternity": 3733,
      "flattery": 3734,
      "flattered": 3735,
      "offended": 3736,
      "pilgrimage": 3737,
      "Contents": 3738,
      "Poor": 3739,
      "Worthy": 3740,
      "Works": 3741,
      "aws": 3742,
      "boldness": 3743,
      "torment": 3744,
      "modern": 3745,
      "divine": 3746,
      "blushes": 3747,
      "Gives": 3748,
      "Knowing": 3749,
      "MENECRA": 3750,
      "URTH": 3751,
      "odour": 3752,
      "pitch": 3753,
      "metaphor": 3754,
      "forgotten": 3755,
      "debate": 3756,
      "deserts": 3757,
      "bitterness": 3758,
      "Ground": 3759,
      "LIFE": 3760,
      "Steward": 3761,
      "acknowledge": 3762,
      "fleet": 3763,
      "palate": 3764,
      "wretch": 3765,
      "seasons": 3766,
      "entertainment": 3767,
      "possession": 3768,
      "proceed": 3769,
      "mission": 3770,
      "ignorant": 3771,
      "physicians": 3772,
      "dreams": 3773,
      "Truly": 3774,
      "hungry": 3775,
      "kneel": 3776,
      "obey": 3777,
      "tinct": 3778,
      "vainly": 3779,
      "injury": 3780,
      "ancestors": 3781,
      "reckon": 3782,
      "belongs": 3783,
      "legacy": 3784,
      "conceit": 3785,
      "trumpets": 3786,
      "property": 3787,
      "extreme": 3788,
      "kingdoms": 3789,
      "guarded": 3790,
      "commendations": 3791,
      "traitors": 3792,
      "council": 3793,
      "possible": 3794,
      "possibility": 3795,
      "Haply": 3796,
      "Looking": 3797,
      "PHILO": 3798,
      "Tomorrow": 3799,
      "Triumvir": 3800,
      "basest": 3801,
      "bastard": 3802,
      "bounty": 3803,
      "cket": 3804,
      "drop": 3805,
      "front": 3806,
      "huge": 3807,
      "torture": 3808,
      "requires": 3809,
      "utenberg": 3810,
      "princes": 3811,
      "prophe": 3812,
      "control": 3813,
      "triumphant": 3814,
      "officer": 3815,
      "DEMET": 3816,
      "FOURTH": 3817,
      "Gerard": 3818,
      "Jove": 3819,
      "Narbon": 3820,
      "Prithee": 3821,
      "_Bos": 3822,
      "battle": 3823,
      "knaves": 3824,
      "influence": 3825,
      "stretch": 3826,
      "sequent": 3827,
      "beguile": 3828,
      "depends": 3829,
      "libert": 3830,
      "ambush": 3831,
      "sullen": 3832,
      "necessity": 3833,
      "posterity": 3834,
      "consider": 3835,
      "rotten": 3836,
      "sighs": 3837,
      "Officers": 3838,
      "Beauty": 3839,
      "affections": 3840,
      "audit": 3841,
      "contracted": 3842,
      "courtesies": 3843,
      "Misenum": 3844,
      "OCTAVIA": 3845,
      "Demand": 3846,
      "Keep": 3847,
      "Sicyon": 3848,
      "Strikes": 3849,
      "SIXTH": 3850,
      "Tuscan": 3851,
      "afeard": 3852,
      "ceremony": 3853,
      "gallant": 3854,
      "journey": 3855,
      "knock": 3856,
      "luded": 3857,
      "mutual": 3858,
      "niggard": 3859,
      "ocean": 3860,
      "trespass": 3861,
      "vulgar": 3862,
      "yonder": 3863,
      "thievish": 3864,
      "arrel": 3865,
      "mystery": 3866,
      "determin": 3867,
      "esteemed": 3868,
      "admitted": 3869,
      "politic": 3870,
      "laughter": 3871,
      "constraint": 3872,
      "produce": 3873,
      "distinction": 3874,
      "exploit": 3875,
      "Parthia": 3876,
      "stratagem": 3877,
      "privilege": 3878,
      "besiege": 3879,
      "MENECRATES": 3880,
      "DEMETRIUS": 3881,
      "19": 3882,
      "20": 3883,
      "24": 3884,
      "25": 3885,
      "94": 3886,
      "?—": 3887,
      "?”": 3888,
      "Ac": 3889,
      "Apart": 3890,
      "Amb": 3891,
      "Alack": 3892,
      "Acti": 3893,
      "Athens": 3894,
      "Bes": 3895,
      "Bre": 3896,
      "Car": 3897,
      "Che": 3898,
      "Cre": 3899,
      "CUS": 3900,
      "Di": 3901,
      "Dram": 3902,
      "Drum": 3903,
      "Die": 3904,
      "En": 3905,
      "Ever": 3906,
      "Every": 3907,
      "Emb": 3908,
      "Each": 3909,
      "Either": 3910,
      "Etern": 3911,
      "Fall": 3912,
      "Fly": 3913,
      "Five": 3914,
      "FTH": 3915,
      "GU": 3916,
      "Gre": 3917,
      "Gra": 3918,
      "Grow": 3919,
      "Grant": 3920,
      "Gutenberg": 3921,
      "Hal": 3922,
      "Hers": 3923,
      "Hast": 3924,
      "Hop": 3925,
      "Hush": 3926,
      "Haste": 3927,
      "Ita": 3928,
      "ILL": 3929,
      "ICE": 3930,
      "JU": 3931,
      "Just": 3932,
      "Kill": 3933,
      "Lay": 3934,
      "Lose": 3935,
      "Last": 3936,
      "Mere": 3937,
      "Mess": 3938,
      "Mus": 3939,
      "Mount": 3940,
      "Mene": 3941,
      "Much": 3942,
      "Nat": 3943,
      "Nil": 3944,
      "Never": 3945,
      "Near": 3946,
      "Nile": 3947,
      "NET": 3948,
      "NIGH": 3949,
      "OU": 3950,
      "Other": 3951,
      "ONA": 3952,
      "PE": 3953,
      "PR": 3954,
      "Pto": 3955,
      "Pain": 3956,
      "Pur": 3957,
      "Pers": 3958,
      "Pres": 3959,
      "Please": 3960,
      "PRO": 3961,
      "Praising": 3962,
      "Que": 3963,
      "Ry": 3964,
      "Right": 3965,
      "Rep": 3966,
      "RON": 3967,
      "SH": 3968,
      "SI": 3969,
      "Sm": 3970,
      "Sy": 3971,
      "Sat": 3972,
      "Send": 3973,
      "Sup": 3974,
      "SON": 3975,
      "Saf": 3976,
      "Sings": 3977,
      "Simp": 3978,
      "Sets": 3979,
      "Seem": 3980,
      "Sext": 3981,
      "TI": 3982,
      "TW": 3983,
      "Tit": 3984,
      "Thi": 3985,
      "Too": 3986,
      "Twould": 3987,
      "Twere": 3988,
      "Train": 3989,
      "Toward": 3990,
      "Use": 3991,
      "Va": 3992,
      "VAR": 3993,
      "VER": 3994,
      "VIII": 3995,
      "Very": 3996,
      "Venus": 3997,
      "Varri": 3998,
      "War": 3999,
      "WIN": 4000,
      "Wish": 4001,
      "WILL": 4002,
      "XI": 4003,
      "XII": 4004,
      "XIII": 4005,
      "YOU": 4006,
      "],": 4007,
      "_I": 4008,
      "_O": 4009,
      "_The": 4010,
      "_When": 4011,
      "_Strikes": 4012,
      "ah": 4013,
      "alo": 4014,
      "ado": 4015,
      "ama": 4016,
      "athing": 4017,
      "aven": 4018,
      "aim": 4019,
      "aled": 4020,
      "ava": 4021,
      "avours": 4022,
      "bay": 4023,
      "blo": 4024,
      "ball": 4025,
      "bend": 4026,
      "bate": 4027,
      "bars": 4028,
      "bab": 4029,
      "bau": 4030,
      "big": 4031,
      "bough": 4032,
      "bore": 4033,
      "bbed": 4034,
      "bting": 4035,
      "bide": 4036,
      "bends": 4037,
      "balls": 4038,
      "bending": 4039,
      "borne": 4040,
      "cis": 4041,
      "cing": 4042,
      "cous": 4043,
      "corn": 4044,
      "chast": 4045,
      "cents": 4046,
      "clay": 4047,
      "cated": 4048,
      "dru": 4049,
      "dry": 4050,
      "dance": 4051,
      "drew": 4052,
      "danc": 4053,
      "dinner": 4054,
      "durst": 4055,
      "ethe": 4056,
      "eve": 4057,
      "ege": 4058,
      "east": 4059,
      "equi": 4060,
      "emed": 4061,
      "ebook": 4062,
      "eager": 4063,
      "fess": 4064,
      "fad": 4065,
      "food": 4066,
      "fount": 4067,
      "fran": 4068,
      "fted": 4069,
      "flight": 4070,
      "fated": 4071,
      "faint": 4072,
      "frank": 4073,
      "gat": 4074,
      "gon": 4075,
      "gay": 4076,
      "gir": 4077,
      "gly": 4078,
      "gap": 4079,
      "hat": 4080,
      "hook": 4081,
      "hated": 4082,
      "hoop": 4083,
      "horns": 4084,
      "honey": 4085,
      "humbly": 4086,
      "ia": 4087,
      "ix": 4088,
      "ior": 4089,
      "ime": 4090,
      "icks": 4091,
      "ize": 4092,
      "iards": 4093,
      "jor": 4094,
      "jad": 4095,
      "jaws": 4096,
      "kins": 4097,
      "kick": 4098,
      "ler": 4099,
      "lse": 4100,
      "lof": 4101,
      "lut": 4102,
      "lam": 4103,
      "lower": 4104,
      "liness": 4105,
      "lark": 4106,
      "lamp": 4107,
      "list": 4108,
      "lament": 4109,
      "loured": 4110,
      "mom": 4111,
      "mere": 4112,
      "mity": 4113,
      "mason": 4114,
      "nes": 4115,
      "nest": 4116,
      "nim": 4117,
      "nic": 4118,
      "oy": 4119,
      "oes": 4120,
      "oil": 4121,
      "olet": 4122,
      "pu": 4123,
      "por": 4124,
      "ping": 4125,
      "ped": 4126,
      "pom": 4127,
      "pate": 4128,
      "page": 4129,
      "pho": 4130,
      "pull": 4131,
      "pond": 4132,
      "pud": 4133,
      "plic": 4134,
      "pinch": 4135,
      "ptian": 4136,
      "pests": 4137,
      "rise": 4138,
      "ration": 4139,
      "root": 4140,
      "sm": 4141,
      "sore": 4142,
      "slay": 4143,
      "sought": 4144,
      "slip": 4145,
      "smil": 4146,
      "tou": 4147,
      "twill": 4148,
      "ture": 4149,
      "tun": 4150,
      "tness": 4151,
      "tled": 4152,
      "tires": 4153,
      "ttering": 4154,
      "tattered": 4155,
      "uc": 4156,
      "ura": 4157,
      "umed": 4158,
      "ually": 4159,
      "uff": 4160,
      "ugly": 4161,
      "vin": 4162,
      "var": 4163,
      "vive": 4164,
      "vag": 4165,
      "vary": 4166,
      "wn": 4167,
      "ww": 4168,
      "wat": 4169,
      "wand": 4170,
      "went": 4171,
      "ware": 4172,
      "wine": 4173,
      "wits": 4174,
      "wag": 4175,
      "wings": 4176,
      "waking": 4177,
      "zard": 4178,
      "’?": 4179,
      "”.": 4180,
      "thra": 4181,
      "thunder": 4182,
      "ouble": 4183,
      "ina": 4184,
      "ining": 4185,
      "insu": 4186,
      "inion": 4187,
      "inate": 4188,
      "inte": 4189,
      "inqui": 4190,
      "infer": 4191,
      "invo": 4192,
      "infirm": 4193,
      "inconstant": 4194,
      "erfl": 4195,
      "erflow": 4196,
      "anch": 4197,
      "anci": 4198,
      "orter": 4199,
      "orious": 4200,
      "orient": 4201,
      "ortive": 4202,
      "thest": 4203,
      "theft": 4204,
      "ende": 4205,
      "engra": 4206,
      "enance": 4207,
      "envy": 4208,
      "enix": 4209,
      "ester": 4210,
      "espe": 4211,
      "esee": 4212,
      "isher": 4213,
      "isper": 4214,
      "ists": 4215,
      "isted": 4216,
      "atis": 4217,
      "ating": 4218,
      "attri": 4219,
      "aries": 4220,
      "artic": 4221,
      "onæ": 4222,
      "llence": 4223,
      "stat": 4224,
      "sters": 4225,
      "stage": 4226,
      "stamp": 4227,
      "stic": 4228,
      "stag": 4229,
      "stings": 4230,
      "stale": 4231,
      "sticks": 4232,
      "today": 4233,
      "towards": 4234,
      "nod": 4235,
      "novel": 4236,
      "nostic": 4237,
      "heal": 4238,
      "hears": 4239,
      "heads": 4240,
      "seth": 4241,
      "sees": 4242,
      "seat": 4243,
      "seest": 4244,
      "sequi": 4245,
      "seize": 4246,
      "meth": 4247,
      "meant": 4248,
      "rema": 4249,
      "recom": 4250,
      "reap": 4251,
      "repro": 4252,
      "review": 4253,
      "relic": 4254,
      "rebel": 4255,
      "rebell": 4256,
      "redeem": 4257,
      "itan": 4258,
      "itap": 4259,
      "itary": 4260,
      "ham": 4261,
      "hap": 4262,
      "havi": 4263,
      "hazard": 4264,
      "belike": 4265,
      "because": 4266,
      "bels": 4267,
      "becoming": 4268,
      "below": 4269,
      "became": 4270,
      "befits": 4271,
      "belied": 4272,
      "behavi": 4273,
      "lea": 4274,
      "lean": 4275,
      "lemy": 4276,
      "leep": 4277,
      "wick": 4278,
      "wives": 4279,
      "wires": 4280,
      "hid": 4281,
      "eded": 4282,
      "edom": 4283,
      "chand": 4284,
      "cement": 4285,
      "owing": 4286,
      "utmost": 4287,
      "utton": 4288,
      "aspect": 4289,
      "asleep": 4290,
      "forti": 4291,
      "forty": 4292,
      "forced": 4293,
      "foresee": 4294,
      "oms": 4295,
      "lod": 4296,
      "lock": 4297,
      "loath": 4298,
      "locked": 4299,
      "located": 4300,
      "notorious": 4301,
      "Thence": 4302,
      "Through": 4303,
      "deaf": 4304,
      "detain": 4305,
      "devo": 4306,
      "defy": 4307,
      "detest": 4308,
      "devise": 4309,
      "devised": 4310,
      "deemed": 4311,
      "wee": 4312,
      "wet": 4313,
      "lier": 4314,
      "lian": 4315,
      "lily": 4316,
      "lids": 4317,
      "livery": 4318,
      "likes": 4319,
      "limit": 4320,
      "lihood": 4321,
      "whisper": 4322,
      "river": 4323,
      "rives": 4324,
      "riper": 4325,
      "rieve": 4326,
      "ket": 4327,
      "key": 4328,
      "keen": 4329,
      "etition": 4330,
      "alt": 4331,
      "alche": 4332,
      "altogether": 4333,
      "alack": 4334,
      "soil": 4335,
      "soever": 4336,
      "solic": 4337,
      "sober": 4338,
      "LET": 4339,
      "rave": 4340,
      "raint": 4341,
      "razed": 4342,
      "dog": 4343,
      "door": 4344,
      "doct": 4345,
      "dota": 4346,
      "doting": 4347,
      "doctor": 4348,
      "enter": 4349,
      "entice": 4350,
      "map": 4351,
      "male": 4352,
      "malice": 4353,
      "Whence": 4354,
      "essing": 4355,
      "tery": 4356,
      "terrible": 4357,
      "tile": 4358,
      "tial": 4359,
      "tily": 4360,
      "tious": 4361,
      "tives": 4362,
      "tired": 4363,
      "verty": 4364,
      "amin": 4365,
      "amity": 4366,
      "allay": 4367,
      "alley": 4368,
      "ool": 4369,
      "oots": 4370,
      "oops": 4371,
      "sual": 4372,
      "super": 4373,
      "sustain": 4374,
      "fever": 4375,
      "herb": 4376,
      "herd": 4377,
      "herbs": 4378,
      "ested": 4379,
      "adore": 4380,
      "adverse": 4381,
      "advers": 4382,
      "advise": 4383,
      "admired": 4384,
      "prise": 4385,
      "print": 4386,
      "prision": 4387,
      "endless": 4388,
      "usest": 4389,
      "ushed": 4390,
      "shaken": 4391,
      "pective": 4392,
      "rule": 4393,
      "ruined": 4394,
      "wills": 4395,
      "willing": 4396,
      "faces": 4397,
      "faster": 4398,
      "faction": 4399,
      "facul": 4400,
      "shower": 4401,
      "shook": 4402,
      "shoot": 4403,
      "shot": 4404,
      "seless": 4405,
      "mov": 4406,
      "moiety": 4407,
      "poets": 4408,
      "points": 4409,
      "pocket": 4410,
      "poverty": 4411,
      "lace": 4412,
      "lacke": 4413,
      "shallow": 4414,
      "cancy": 4415,
      "canop": 4416,
      "quet": 4417,
      "quart": 4418,
      "quill": 4419,
      "quish": 4420,
      "quarrel": 4421,
      "contend": 4422,
      "conceive": 4423,
      "convo": 4424,
      "converted": 4425,
      "robe": 4426,
      "ross": 4427,
      "robs": 4428,
      "muff": 4429,
      "indig": 4430,
      "aked": 4431,
      "comb": 4432,
      "comment": 4433,
      "compl": 4434,
      "compi": 4435,
      "compos": 4436,
      "comments": 4437,
      "complain": 4438,
      "commission": 4439,
      "unct": 4440,
      "unset": 4441,
      "unfather": 4442,
      "unthri": 4443,
      "unrespect": 4444,
      "unlawful": 4445,
      "unworthiness": 4446,
      "unpitied": 4447,
      "unclean": 4448,
      "owner": 4449,
      "whatsoever": 4450,
      "iff": 4451,
      "iles": 4452,
      "mansion": 4453,
      "shed": 4454,
      "sheets": 4455,
      "COMP": 4456,
      "ult": 4457,
      "seeks": 4458,
      "Hear": 4459,
      "Health": 4460,
      "Hearing": 4461,
      "Heaven": 4462,
      "vessel": 4463,
      "teth": 4464,
      "apace": 4465,
      "appare": 4466,
      "board": 4467,
      "boils": 4468,
      "goers": 4469,
      "aston": 4470,
      "swears": 4471,
      "sweethe": 4472,
      "vily": 4473,
      "viol": 4474,
      "violet": 4475,
      "thereby": 4476,
      "foregone": 4477,
      "sails": 4478,
      "pled": 4479,
      "INCE": 4480,
      "sire": 4481,
      "sighed": 4482,
      "diet": 4483,
      "dient": 4484,
      "dict": 4485,
      "dible": 4486,
      "Myself": 4487,
      "proves": 4488,
      "provide": 4489,
      "probable": 4490,
      "Note": 4491,
      "epitap": 4492,
      "greatness": 4493,
      "Youth": 4494,
      "autumn": 4495,
      "ranks": 4496,
      "ranged": 4497,
      "tame": 4498,
      "tabl": 4499,
      "taunt": 4500,
      "taffet": 4501,
      "Expect": 4502,
      "Extended": 4503,
      "outworn": 4504,
      "disgu": 4505,
      "discontent": 4506,
      "disposed": 4507,
      "dispatch": 4508,
      "dissuade": 4509,
      "dislik": 4510,
      "distemper": 4511,
      "spar": 4512,
      "spac": 4513,
      "sportive": 4514,
      "otherwise": 4515,
      "tooth": 4516,
      "muster": 4517,
      "sweetness": 4518,
      "exc": 4519,
      "extend": 4520,
      "expi": 4521,
      "extre": 4522,
      "extern": 4523,
      "exped": 4524,
      "examin": 4525,
      "fied": 4526,
      "fiend": 4527,
      "fickle": 4528,
      "umes": 4529,
      "perse": 4530,
      "perus": 4531,
      "persever": 4532,
      "whereon": 4533,
      "desires": 4534,
      "serves": 4535,
      "services": 4536,
      "tuous": 4537,
      "fairly": 4538,
      "graced": 4539,
      "grapes": 4540,
      "blown": 4541,
      "blish": 4542,
      "friar": 4543,
      "party": 4544,
      "parting": 4545,
      "partly": 4546,
      "partners": 4547,
      "Beque": 4548,
      "Bearing": 4549,
      "Believe": 4550,
      "fulfil": 4551,
      "kingly": 4552,
      "betwixt": 4553,
      "lively": 4554,
      "Roses": 4555,
      "scru": 4556,
      "scold": 4557,
      "score": 4558,
      "scores": 4559,
      "madness": 4560,
      "speaks": 4561,
      "hole": 4562,
      "imit": 4563,
      "iments": 4564,
      "immortal": 4565,
      "immedi": 4566,
      "imprison": 4567,
      "impossibility": 4568,
      "marjor": 4569,
      "market": 4570,
      "heavily": 4571,
      "gust": 4572,
      "ache": 4573,
      "access": 4574,
      "accuse": 4575,
      "achie": 4576,
      "flour": 4577,
      "flown": 4578,
      "wrought": 4579,
      "hereafter": 4580,
      "deared": 4581,
      "undo": 4582,
      "newer": 4583,
      "newly": 4584,
      "Isbels": 4585,
      "patent": 4586,
      "pattern": 4587,
      "civil": 4588,
      "cially": 4589,
      "handsome": 4590,
      "abond": 4591,
      "abstra": 4592,
      "absol": 4593,
      "abroad": 4594,
      "breach": 4595,
      "breathing": 4596,
      "mermaid": 4597,
      "merits": 4598,
      "merchand": 4599,
      "mightst": 4600,
      "everywhere": 4601,
      "earl": 4602,
      "early": 4603,
      "howe": 4604,
      "naldo": 4605,
      "lesser": 4606,
      "praising": 4607,
      "nightly": 4608,
      "Howe": 4609,
      "coloured": 4610,
      "eyelids": 4611,
      "assad": 4612,
      "assist": 4613,
      "presage": 4614,
      "presume": 4615,
      "prescription": 4616,
      "preserve": 4617,
      "telling": 4618,
      "heavens": 4619,
      "ressed": 4620,
      "anywhere": 4621,
      "offer": 4622,
      "offences": 4623,
      "cheer": 4624,
      "checked": 4625,
      "courteous": 4626,
      "showing": 4627,
      "showers": 4628,
      "miser": 4629,
      "mistake": 4630,
      "misdoubt": 4631,
      "misprision": 4632,
      "prithee": 4633,
      "prizing": 4634,
      "truths": 4635,
      "aug": 4636,
      "audience": 4637,
      "engthen": 4638,
      "deaths": 4639,
      "months": 4640,
      "monsters": 4641,
      "longing": 4642,
      "mothers": 4643,
      "counting": 4644,
      "countenance": 4645,
      "farthest": 4646,
      "sons": 4647,
      "rights": 4648,
      "CHARD": 4649,
      "ordin": 4650,
      "order": 4651,
      "ordingly": 4652,
      "worthless": 4653,
      "embo": 4654,
      "empt": 4655,
      "embling": 4656,
      "places": 4657,
      "placed": 4658,
      "plagues": 4659,
      "plausive": 4660,
      "warning": 4661,
      "THAT": 4662,
      "pier": 4663,
      "purse": 4664,
      "purge": 4665,
      "purcha": 4666,
      "pursuit": 4667,
      "pursue": 4668,
      "puritan": 4669,
      "understood": 4670,
      "hourly": 4671,
      "knit": 4672,
      "highest": 4673,
      "dying": 4674,
      "dyed": 4675,
      "angle": 4676,
      "angled": 4677,
      "deadly": 4678,
      "bark": 4679,
      "barge": 4680,
      "barber": 4681,
      "prayer": 4682,
      "Yourself": 4683,
      "puts": 4684,
      "built": 4685,
      "renown": 4686,
      "trick": 4687,
      "triple": 4688,
      "trifles": 4689,
      "trifle": 4690,
      "trivial": 4691,
      "stern": 4692,
      "settle": 4693,
      "setting": 4694,
      "ASUR": 4695,
      "penit": 4696,
      "pencil": 4697,
      "stee": 4698,
      "steed": 4699,
      "keeping": 4700,
      "ooked": 4701,
      "bragg": 4702,
      "bravest": 4703,
      "kindness": 4704,
      "prec": 4705,
      "petition": 4706,
      "sums": 4707,
      "bade": 4708,
      "broad": 4709,
      "broached": 4710,
      "ference": 4711,
      "needful": 4712,
      "falsely": 4713,
      "gling": 4714,
      "glance": 4715,
      "glutton": 4716,
      "restor": 4717,
      "restraint": 4718,
      "hedge": 4719,
      "Thank": 4720,
      "Tired": 4721,
      "ladyship": 4722,
      "spoil": 4723,
      "spots": 4724,
      "trava": 4725,
      "travell": 4726,
      "intent": 4727,
      "medit": 4728,
      "fearful": 4729,
      "answers": 4730,
      ",—“": 4731,
      "Egyptian": 4732,
      "cares": 4733,
      "carried": 4734,
      "carries": 4735,
      "follows": 4736,
      "harms": 4737,
      "tales": 4738,
      "happen": 4739,
      "happiness": 4740,
      "happily": 4741,
      "friendship": 4742,
      "drums": 4743,
      "growing": 4744,
      "matters": 4745,
      "charged": 4746,
      "submit": 4747,
      "businesses": 4748,
      "aged": 4749,
      "ctions": 4750,
      "whither": 4751,
      "whipp": 4752,
      "homely": 4753,
      "parce": 4754,
      "trees": 4755,
      "vol": 4756,
      "sickly": 4757,
      "husbandry": 4758,
      "obloqu": 4759,
      "obsequi": 4760,
      "passions": 4761,
      "stays": 4762,
      "strives": 4763,
      "strikes": 4764,
      "stripped": 4765,
      "riches": 4766,
      "richly": 4767,
      "brine": 4768,
      "couch": 4769,
      "slain": 4770,
      "slumb": 4771,
      "sluttish": 4772,
      "sentence": 4773,
      "stranger": 4774,
      "earthly": 4775,
      "RICHARD": 4776,
      "oppress": 4777,
      "oppressed": 4778,
      "opinion": 4779,
      "sightless": 4780,
      "enerally": 4781,
      "believed": 4782,
      "decrees": 4783,
      "survive": 4784,
      "nearly": 4785,
      "Pompeius": 4786,
      "United": 4787,
      "Unlooked": 4788,
      "getting": 4789,
      "senses": 4790,
      "sensual": 4791,
      "venture": 4792,
      "laws": 4793,
      "compound": 4794,
      "compounds": 4795,
      "tempests": 4796,
      "pleased": 4797,
      "fallen": 4798,
      "gait": 4799,
      "gather": 4800,
      "gaol": 4801,
      "henceforth": 4802,
      "minute": 4803,
      "wanted": 4804,
      "runs": 4805,
      "Frenchmen": 4806,
      "Sometime": 4807,
      "ggish": 4808,
      "slew": 4809,
      "souls": 4810,
      "incertain": 4811,
      "inclin": 4812,
      "exceeding": 4813,
      "excellence": 4814,
      "despise": 4815,
      "brothers": 4816,
      "strangely": 4817,
      "Read": 4818,
      "Remain": 4819,
      "credence": 4820,
      "sadly": 4821,
      "yea": 4822,
      "delicate": 4823,
      "acts": 4824,
      "cries": 4825,
      "cribe": 4826,
      "careful": 4827,
      "humour": 4828,
      "vacancy": 4829,
      "witch": 4830,
      "zealous": 4831,
      "meantime": 4832,
      "losses": 4833,
      "suited": 4834,
      "suitors": 4835,
      "added": 4836,
      "address": 4837,
      "pearl": 4838,
      "faithfully": 4839,
      "siege": 4840,
      "Florentines": 4841,
      "commanded": 4842,
      "curse": 4843,
      "curls": 4844,
      "cured": 4845,
      "ecu": 4846,
      "groans": 4847,
      "streets": 4848,
      "Octavius": 4849,
      "100": 4850,
      "MARK": 4851,
      "drawn": 4852,
      "gifts": 4853,
      "overture": 4854,
      "promis": 4855,
      "promising": 4856,
      "lasting": 4857,
      "temptation": 4858,
      "Comes": 4859,
      "Commit": 4860,
      "Commend": 4861,
      "brows": 4862,
      "lusty": 4863,
      "saved": 4864,
      "wished": 4865,
      "mortality": 4866,
      "concluded": 4867,
      "approof": 4868,
      "approves": 4869,
      "speedily": 4870,
      "servants": 4871,
      "respects": 4872,
      "decays": 4873,
      "decayed": 4874,
      "Stand": 4875,
      "Stay": 4876,
      "Stran": 4877,
      "States": 4878,
      "bery": 4879,
      "darkly": 4880,
      "darkness": 4881,
      "famous": 4882,
      "garboils": 4883,
      "sounds": 4884,
      "twixt": 4885,
      "twigs": 4886,
      "urio": 4887,
      "stained": 4888,
      "delights": 4889,
      "weakness": 4890,
      "speechless": 4891,
      "blessings": 4892,
      "effects": 4893,
      "Cannot": 4894,
      "Methought": 4895,
      "bury": 4896,
      "burst": 4897,
      "burthen": 4898,
      "burden": 4899,
      "dangerous": 4900,
      "fresher": 4901,
      "gnant": 4902,
      "mourners": 4903,
      "salt": 4904,
      "salve": 4905,
      "salad": 4906,
      "interest": 4907,
      "begins": 4908,
      "offender": 4909,
      "winters": 4910,
      "fortunate": 4911,
      "Confess": 4912,
      "Disdain": 4913,
      "Pointing": 4914,
      "Worth": 4915,
      "dateless": 4916,
      "drinks": 4917,
      "drinking": 4918,
      "hurts": 4919,
      "songs": 4920,
      "tory": 4921,
      "transl": 4922,
      "woos": 4923,
      "wooed": 4924,
      "wounds": 4925,
      "received": 4926,
      "remains": 4927,
      "cherish": 4928,
      "lottery": 4929,
      "feasts": 4930,
      "divided": 4931,
      "blushing": 4932,
      "grounds": 4933,
      "grounded": 4934,
      "judgments": 4935,
      "deliverance": 4936,
      "wasteful": 4937,
      "Giving": 4938,
      "Gilding": 4939,
      "Hadst": 4940,
      "Share": 4941,
      "Should": 4942,
      "Spending": 4943,
      "Spurio": 4944,
      "cloud": 4945,
      "cropped": 4946,
      "files": 4947,
      "filthy": 4948,
      "hoodwink": 4949,
      "imagin": 4950,
      "odds": 4951,
      "olv": 4952,
      "sourly": 4953,
      "sourest": 4954,
      "error": 4955,
      "scornful": 4956,
      "accordingly": 4957,
      "jewels": 4958,
      "gladly": 4959,
      "subjects": 4960,
      "particulars": 4961,
      "Camps": 4962,
      "Finding": 4963,
      "Grand": 4964,
      "LIUS": 4965,
      "Lead": 4966,
      "banquet": 4967,
      "crates": 4968,
      "crushed": 4969,
      "clearer": 4970,
      "miles": 4971,
      "palm": 4972,
      "perspective": 4973,
      "vanished": 4974,
      "assage": 4975,
      "assailed": 4976,
      "assault": 4977,
      "entertained": 4978,
      "feeling": 4979,
      "possessed": 4980,
      "labouring": 4981,
      "pleasing": 4982,
      "pleasures": 4983,
      "proceeds": 4984,
      "proceeding": 4985,
      "expertness": 4986,
      "bestowing": 4987,
      "talked": 4988,
      "greeting": 4989,
      "Reserve": 4990,
      "Resembling": 4991,
      "Seek": 4992,
      "Truth": 4993,
      "crave": 4994,
      "craft": 4995,
      "fishes": 4996,
      "gently": 4997,
      "knee": 4998,
      "malady": 4999
    },
    "merges": [
      [
        "t",
        "h"
      ],
      [
        "o",
        "u"
      ],
      [
        "i",
        "n"
      ],
      [
        "e",
        "r"
      ],
      [
        "a",
        "n"
      ],
      [
        "o",
        "r"
      ],
      [
        "th",
        "e"
      ],
      [
        "e",
        "n"
      ],
      [
        "e",
        "s"
      ],
      [
        "i",
        "s"
      ],
      [
        "a",
        "t"
      ],
      [
        "a",
        "r"
      ],
      [
        "o",
        "n"
      ],
      [
        "l",
        "l"
      ],
      [
        "s",
        "t"
      ],
      [
        "v",
        "e"
      ],
      [
        "t",
        "o"
      ],
      [
        "n",
        "o"
      ],
      [
        "h",
        "e"
      ],
      [
        "s",
        "e"
      ],
      [
        "an",
        "d"
      ],
      [
        "m",
        "e"
      ],
      [
        "y",
        "ou"
      ],
      [
        "o",
        "f"
      ],
      [
        "r",
        "e"
      ],
      [
        "in",
        "g"
      ],
      [
        "i",
        "t"
      ],
      [
        "h",
        "a"
      ],
      [
        "b",
        "e"
      ],
      [
        "l",
        "e"
      ],
      [
        "m",
        "y"
      ],
      [
        "w",
        "i"
      ],
      [
        "h",
        "i"
      ],
      [
        "e",
        "d"
      ],
      [
        "c",
        "h"
      ],
      [
        "c",
        "e"
      ],
      [
        "o",
        "w"
      ],
      [
        "u",
        "t"
      ],
      [
        "a",
        "s"
      ],
      [
        "f",
        "or"
      ],
      [
        "l",
        "d"
      ],
      [
        "a",
        "y"
      ],
      [
        "o",
        "m"
      ],
      [
        "n",
        "d"
      ],
      [
        "l",
        "o"
      ],
      [
        "g",
        "h"
      ],
      [
        "th",
        "at"
      ],
      [
        "no",
        "t"
      ],
      [
        "T",
        "h"
      ],
      [
        "i",
        "r"
      ],
      [
        "er",
        "e"
      ],
      [
        "d",
        "e"
      ],
      [
        "w",
        "e"
      ],
      [
        "l",
        "i"
      ],
      [
        "th",
        "ou"
      ],
      [
        "w",
        "h"
      ],
      [
        "r",
        "i"
      ],
      [
        "ou",
        "r"
      ],
      [
        "k",
        "e"
      ],
      [
        "e",
        "t"
      ],
      [
        "a",
        "l"
      ],
      [
        "A",
        "nd"
      ],
      [
        "s",
        "o"
      ],
      [
        "wi",
        "th"
      ],
      [
        "L",
        "E"
      ],
      [
        "r",
        "a"
      ],
      [
        "d",
        "o"
      ],
      [
        "th",
        "y"
      ],
      [
        "gh",
        "t"
      ],
      [
        "en",
        "t"
      ],
      [
        "h",
        "is"
      ],
      [
        "m",
        "a"
      ],
      [
        "you",
        "r"
      ],
      [
        "W",
        "h"
      ],
      [
        "es",
        "s"
      ],
      [
        "t",
        "er"
      ],
      [
        "t",
        "i"
      ],
      [
        "v",
        "er"
      ],
      [
        "a",
        "m"
      ],
      [
        "a",
        "ll"
      ],
      [
        "o",
        "o"
      ],
      [
        "l",
        "y"
      ],
      [
        "ha",
        "ve"
      ],
      [
        "s",
        "u"
      ],
      [
        "th",
        "er"
      ],
      [
        "f",
        "e"
      ],
      [
        "hi",
        "m"
      ],
      [
        "i",
        "d"
      ],
      [
        "h",
        "er"
      ],
      [
        "es",
        "t"
      ],
      [
        "a",
        "d"
      ],
      [
        "ar",
        "e"
      ],
      [
        "p",
        "r"
      ],
      [
        "ou",
        "ld"
      ],
      [
        "lo",
        "ve"
      ],
      [
        "no",
        "w"
      ],
      [
        "the",
        "e"
      ],
      [
        "n",
        "e"
      ],
      [
        "A",
        "R"
      ],
      [
        "T",
        "he"
      ],
      [
        "a",
        "in"
      ],
      [
        "en",
        "d"
      ],
      [
        "th",
        "is"
      ],
      [
        "ar",
        "t"
      ],
      [
        "u",
        "s"
      ],
      [
        "s",
        "ha"
      ],
      [
        "in",
        "e"
      ],
      [
        "p",
        "e"
      ],
      [
        "r",
        "u"
      ],
      [
        "u",
        "r"
      ],
      [
        "on",
        "e"
      ],
      [
        "w",
        "or"
      ],
      [
        "hi",
        "ch"
      ],
      [
        "b",
        "ut"
      ],
      [
        "g",
        "e"
      ],
      [
        "wi",
        "ll"
      ],
      [
        "n",
        "t"
      ],
      [
        "c",
        "k"
      ],
      [
        "f",
        "a"
      ],
      [
        "i",
        "ll"
      ],
      [
        "s",
        "h"
      ],
      [
        "se",
        "l"
      ],
      [
        "m",
        "o"
      ],
      [
        "R",
        "A"
      ],
      [
        "E",
        "R"
      ],
      [
        "A",
        "N"
      ],
      [
        "p",
        "o"
      ],
      [
        "Th",
        "at"
      ],
      [
        "m",
        "or"
      ],
      [
        "B",
        "ut"
      ],
      [
        "r",
        "om"
      ],
      [
        "T",
        "o"
      ],
      [
        "T",
        "RA"
      ],
      [
        "l",
        "a"
      ],
      [
        "sha",
        "ll"
      ],
      [
        "O",
        "L"
      ],
      [
        "oo",
        "d"
      ],
      [
        "sel",
        "f"
      ],
      [
        "i",
        "ght"
      ],
      [
        "k",
        "now"
      ],
      [
        "b",
        "y"
      ],
      [
        "l",
        "or"
      ],
      [
        "c",
        "an"
      ],
      [
        "L",
        "O"
      ],
      [
        "q",
        "u"
      ],
      [
        "u",
        "re"
      ],
      [
        "c",
        "on"
      ],
      [
        "H",
        "E"
      ],
      [
        "o",
        "me"
      ],
      [
        "o",
        "ld"
      ],
      [
        "f",
        "rom"
      ],
      [
        "r",
        "o"
      ],
      [
        "E",
        "S"
      ],
      [
        "m",
        "u"
      ],
      [
        "in",
        "d"
      ],
      [
        "a",
        "k"
      ],
      [
        "E",
        "N"
      ],
      [
        "w",
        "hich"
      ],
      [
        "we",
        "ll"
      ],
      [
        "i",
        "on"
      ],
      [
        "u",
        "p"
      ],
      [
        "c",
        "om"
      ],
      [
        "u",
        "n"
      ],
      [
        "ow",
        "n"
      ],
      [
        "wh",
        "at"
      ],
      [
        "mor",
        "e"
      ],
      [
        "i",
        "f"
      ],
      [
        "i",
        "l"
      ],
      [
        "P",
        "AR"
      ],
      [
        "c",
        "t"
      ],
      [
        "i",
        "ve"
      ],
      [
        "m",
        "an"
      ],
      [
        "s",
        "he"
      ],
      [
        "C",
        "O"
      ],
      [
        "u",
        "l"
      ],
      [
        "en",
        "ce"
      ],
      [
        "LE",
        "S"
      ],
      [
        "OL",
        "LES"
      ],
      [
        "PAR",
        "OLLES"
      ],
      [
        "se",
        "e"
      ],
      [
        "H",
        "e"
      ],
      [
        "t",
        "ru"
      ],
      [
        "w",
        "as"
      ],
      [
        "at",
        "e"
      ],
      [
        "on",
        "g"
      ],
      [
        "ou",
        "s"
      ],
      [
        "re",
        "at"
      ],
      [
        "v",
        "es"
      ],
      [
        "ar",
        "d"
      ],
      [
        "F",
        "or"
      ],
      [
        "a",
        "ve"
      ],
      [
        "w",
        "ould"
      ],
      [
        "th",
        "ing"
      ],
      [
        "e",
        "y"
      ],
      [
        "s",
        "ay"
      ],
      [
        "t",
        "e"
      ],
      [
        "g",
        "ood"
      ],
      [
        "er",
        "s"
      ],
      [
        "an",
        "t"
      ],
      [
        "ES",
        "S"
      ],
      [
        "b",
        "le"
      ],
      [
        "in",
        "k"
      ],
      [
        "lor",
        "d"
      ],
      [
        "S",
        "T"
      ],
      [
        "a",
        "p"
      ],
      [
        "b",
        "o"
      ],
      [
        "the",
        "y"
      ],
      [
        "g",
        "o"
      ],
      [
        "th",
        "an"
      ],
      [
        "I",
        "R"
      ],
      [
        "e",
        "ver"
      ],
      [
        "o",
        "se"
      ],
      [
        "v",
        "en"
      ],
      [
        "N",
        "A"
      ],
      [
        "a",
        "st"
      ],
      [
        "s",
        "we"
      ],
      [
        "v",
        "i"
      ],
      [
        "th",
        "ere"
      ],
      [
        "F",
        "IR"
      ],
      [
        "s",
        "ir"
      ],
      [
        "for",
        "e"
      ],
      [
        "FIR",
        "ST"
      ],
      [
        "s",
        "a"
      ],
      [
        "LE",
        "NA"
      ],
      [
        "HE",
        "LENA"
      ],
      [
        "m",
        "ine"
      ],
      [
        "p",
        "le"
      ],
      [
        "I",
        "N"
      ],
      [
        "g",
        "ain"
      ],
      [
        "s",
        "i"
      ],
      [
        "the",
        "ir"
      ],
      [
        "sh",
        "ould"
      ],
      [
        "E",
        "W"
      ],
      [
        "LO",
        "R"
      ],
      [
        "B",
        "ER"
      ],
      [
        "I",
        "f"
      ],
      [
        "d",
        "i"
      ],
      [
        "it",
        "y"
      ],
      [
        "ma",
        "ke"
      ],
      [
        "ti",
        "me"
      ],
      [
        "LOR",
        "D"
      ],
      [
        "TRA",
        "M"
      ],
      [
        "BER",
        "TRAM"
      ],
      [
        "M",
        "y"
      ],
      [
        "the",
        "n"
      ],
      [
        "pr",
        "o"
      ],
      [
        "L",
        "A"
      ],
      [
        "Wh",
        "en"
      ],
      [
        "the",
        "m"
      ],
      [
        "s",
        "pe"
      ],
      [
        "wh",
        "en"
      ],
      [
        "IN",
        "G"
      ],
      [
        "F",
        "EW"
      ],
      [
        "N",
        "o"
      ],
      [
        "LA",
        "FEW"
      ],
      [
        "K",
        "ING"
      ],
      [
        "ou",
        "nt"
      ],
      [
        "he",
        "art"
      ],
      [
        "a",
        "th"
      ],
      [
        "h",
        "on"
      ],
      [
        "w",
        "ay"
      ],
      [
        "Wh",
        "at"
      ],
      [
        "I",
        "n"
      ],
      [
        "e",
        "p"
      ],
      [
        "g",
        "reat"
      ],
      [
        "n",
        "ter"
      ],
      [
        "ar",
        "s"
      ],
      [
        "D",
        "I"
      ],
      [
        "lo",
        "o"
      ],
      [
        "mo",
        "st"
      ],
      [
        "Y",
        "ou"
      ],
      [
        "a",
        "ut"
      ],
      [
        "r",
        "an"
      ],
      [
        "t",
        "a"
      ],
      [
        "ha",
        "th"
      ],
      [
        "li",
        "ke"
      ],
      [
        "A",
        "s"
      ],
      [
        "E",
        "x"
      ],
      [
        "S",
        "o"
      ],
      [
        "ou",
        "t"
      ],
      [
        "P",
        "A"
      ],
      [
        "w",
        "ere"
      ],
      [
        "d",
        "is"
      ],
      [
        "d",
        "id"
      ],
      [
        "s",
        "p"
      ],
      [
        "N",
        "T"
      ],
      [
        "o",
        "ther"
      ],
      [
        "r",
        "ing"
      ],
      [
        "le",
        "t"
      ],
      [
        "do",
        "th"
      ],
      [
        "U",
        "NT"
      ],
      [
        "m",
        "ay"
      ],
      [
        "CO",
        "UNT"
      ],
      [
        "COUNT",
        "ESS"
      ],
      [
        "W",
        "hich"
      ],
      [
        "r",
        "y"
      ],
      [
        "ou",
        "nd"
      ],
      [
        "en",
        "e"
      ],
      [
        "is",
        "h"
      ],
      [
        "to",
        "o"
      ],
      [
        "be",
        "aut"
      ],
      [
        "mu",
        "st"
      ],
      [
        "up",
        "on"
      ],
      [
        "swe",
        "et"
      ],
      [
        "e",
        "x"
      ],
      [
        "f",
        "i"
      ],
      [
        "u",
        "m"
      ],
      [
        "ha",
        "d"
      ],
      [
        "E",
        "nter"
      ],
      [
        "n",
        "ess"
      ],
      [
        "p",
        "er"
      ],
      [
        "wh",
        "ere"
      ],
      [
        "i",
        "th"
      ],
      [
        "r",
        "ow"
      ],
      [
        "u",
        "se"
      ],
      [
        "th",
        "ink"
      ],
      [
        "O",
        "N"
      ],
      [
        "y",
        "et"
      ],
      [
        "U",
        "S"
      ],
      [
        "c",
        "ome"
      ],
      [
        "so",
        "me"
      ],
      [
        "d",
        "es"
      ],
      [
        "s",
        "er"
      ],
      [
        "t",
        "u"
      ],
      [
        "C",
        "LE"
      ],
      [
        "O",
        "PA"
      ],
      [
        "fa",
        "ir"
      ],
      [
        "CLE",
        "OPA"
      ],
      [
        "CLEOPA",
        "TRA"
      ],
      [
        "_",
        "Ex"
      ],
      [
        "g",
        "ra"
      ],
      [
        "AN",
        "T"
      ],
      [
        "b",
        "l"
      ],
      [
        "g",
        "ive"
      ],
      [
        "is",
        "e"
      ],
      [
        "su",
        "ch"
      ],
      [
        "ON",
        "Y"
      ],
      [
        "ANT",
        "ONY"
      ],
      [
        "f",
        "ri"
      ],
      [
        "p",
        "t"
      ],
      [
        "Th",
        "ou"
      ],
      [
        "I",
        "I"
      ],
      [
        "a",
        "ge"
      ],
      [
        "a",
        "gain"
      ],
      [
        "beaut",
        "y"
      ],
      [
        "fri",
        "end"
      ],
      [
        "C",
        "a"
      ],
      [
        "a",
        "ce"
      ],
      [
        "d",
        "s"
      ],
      [
        "d",
        "ay"
      ],
      [
        "O",
        "f"
      ],
      [
        "p",
        "art"
      ],
      [
        "on",
        "y"
      ],
      [
        "A",
        "nt"
      ],
      [
        "a",
        "se"
      ],
      [
        "er",
        "t"
      ],
      [
        "ey",
        "es"
      ],
      [
        "B",
        "e"
      ],
      [
        "f",
        "ul"
      ],
      [
        "k",
        "ing"
      ],
      [
        "es",
        "ar"
      ],
      [
        "be",
        "t"
      ],
      [
        "ti",
        "on"
      ],
      [
        "Ca",
        "esar"
      ],
      [
        "W",
        "e"
      ],
      [
        "s",
        "s"
      ],
      [
        "li",
        "ve"
      ],
      [
        "hon",
        "our"
      ],
      [
        "R",
        "o"
      ],
      [
        "s",
        "c"
      ],
      [
        "ma",
        "d"
      ],
      [
        "spe",
        "ak"
      ],
      [
        "S",
        "c"
      ],
      [
        "h",
        "o"
      ],
      [
        "i",
        "m"
      ],
      [
        "Ant",
        "ony"
      ],
      [
        "m",
        "ar"
      ],
      [
        "he",
        "a"
      ],
      [
        "Sc",
        "ene"
      ],
      [
        "g",
        "u"
      ],
      [
        "th",
        "ine"
      ],
      [
        "or",
        "t"
      ],
      [
        "a",
        "c"
      ],
      [
        "f",
        "l"
      ],
      [
        "k",
        "s"
      ],
      [
        "w",
        "r"
      ],
      [
        "thou",
        "ght"
      ],
      [
        "h",
        "ere"
      ],
      [
        "o",
        "ll"
      ],
      [
        "p",
        "p"
      ],
      [
        "re",
        "d"
      ],
      [
        "de",
        "ar"
      ],
      [
        "u",
        "nd"
      ],
      [
        "it",
        "e"
      ],
      [
        "ne",
        "w"
      ],
      [
        "I",
        "s"
      ],
      [
        "p",
        "at"
      ],
      [
        "t",
        "end"
      ],
      [
        "v",
        "ing"
      ],
      [
        "v",
        "ir"
      ],
      [
        "C",
        "LO"
      ],
      [
        "W",
        "N"
      ],
      [
        "W",
        "ith"
      ],
      [
        "a",
        "f"
      ],
      [
        "c",
        "i"
      ],
      [
        "h",
        "and"
      ],
      [
        "u",
        "nt"
      ],
      [
        "ur",
        "n"
      ],
      [
        "wor",
        "ld"
      ],
      [
        "tru",
        "e"
      ],
      [
        "CLO",
        "WN"
      ],
      [
        "a",
        "b"
      ],
      [
        "b",
        "re"
      ],
      [
        "e",
        "l"
      ],
      [
        "m",
        "en"
      ],
      [
        "m",
        "er"
      ],
      [
        "m",
        "ight"
      ],
      [
        "t",
        "y"
      ],
      [
        "ever",
        "y"
      ],
      [
        "e",
        "ar"
      ],
      [
        "re",
        "p"
      ],
      [
        "ow",
        "er"
      ],
      [
        "li",
        "fe"
      ],
      [
        "mad",
        "am"
      ],
      [
        "S",
        "E"
      ],
      [
        "h",
        "ow"
      ],
      [
        "n",
        "a"
      ],
      [
        "n",
        "at"
      ],
      [
        "t",
        "is"
      ],
      [
        "mu",
        "ch"
      ],
      [
        "ta",
        "ke"
      ],
      [
        "L",
        "et"
      ],
      [
        "O",
        "r"
      ],
      [
        "l",
        "ess"
      ],
      [
        "p",
        "ra"
      ],
      [
        "st",
        "ill"
      ],
      [
        "as",
        "ure"
      ],
      [
        "Th",
        "is"
      ],
      [
        "thou",
        "gh"
      ],
      [
        "ne",
        "ver"
      ],
      [
        "N",
        "D"
      ],
      [
        "n",
        "or"
      ],
      [
        "n",
        "ight"
      ],
      [
        "Wh",
        "ere"
      ],
      [
        "CO",
        "ND"
      ],
      [
        "SE",
        "COND"
      ],
      [
        "H",
        "ow"
      ],
      [
        "I",
        "t"
      ],
      [
        "c",
        "o"
      ],
      [
        "u",
        "st"
      ],
      [
        "in",
        "ce"
      ],
      [
        "ver",
        "y"
      ],
      [
        "AN",
        "A"
      ],
      [
        "ey",
        "e"
      ],
      [
        "m",
        "ent"
      ],
      [
        "an",
        "ce"
      ],
      [
        "as",
        "s"
      ],
      [
        "li",
        "e"
      ],
      [
        "pr",
        "es"
      ],
      [
        "te",
        "ll"
      ],
      [
        "hea",
        "ven"
      ],
      [
        "l",
        "t"
      ],
      [
        "p",
        "l"
      ],
      [
        "r",
        "es"
      ],
      [
        "w",
        "o"
      ],
      [
        "an",
        "y"
      ],
      [
        "no",
        "thing"
      ],
      [
        "se",
        "d"
      ],
      [
        "T",
        "HE"
      ],
      [
        "i",
        "an"
      ],
      [
        "u",
        "ll"
      ],
      [
        "w",
        "om"
      ],
      [
        "or",
        "n"
      ],
      [
        "at",
        "ion"
      ],
      [
        "of",
        "f"
      ],
      [
        "ha",
        "st"
      ],
      [
        "P",
        "ar"
      ],
      [
        "a",
        "way"
      ],
      [
        "c",
        "he"
      ],
      [
        "c",
        "our"
      ],
      [
        "m",
        "b"
      ],
      [
        "st",
        "r"
      ],
      [
        "he",
        "ar"
      ],
      [
        "sh",
        "ow"
      ],
      [
        "can",
        "not"
      ],
      [
        "h",
        "old"
      ],
      [
        "m",
        "is"
      ],
      [
        "Th",
        "en"
      ],
      [
        "Th",
        "ere"
      ],
      [
        "ent",
        "le"
      ],
      [
        "f",
        "ir"
      ],
      [
        "p",
        "ri"
      ],
      [
        "t",
        "s"
      ],
      [
        "be",
        "ing"
      ],
      [
        "ma",
        "de"
      ],
      [
        "Wh",
        "y"
      ],
      [
        "po",
        "or"
      ],
      [
        "tru",
        "th"
      ],
      [
        "DI",
        "ANA"
      ],
      [
        "B",
        "y"
      ],
      [
        "C",
        "EN"
      ],
      [
        "I",
        "D"
      ],
      [
        "a",
        "u"
      ],
      [
        "e",
        "f"
      ],
      [
        "f",
        "ind"
      ],
      [
        "u",
        "e"
      ],
      [
        "an",
        "s"
      ],
      [
        "en",
        "g"
      ],
      [
        "le",
        "d"
      ],
      [
        "de",
        "ath"
      ],
      [
        "al",
        "ace"
      ],
      [
        "bo",
        "th"
      ],
      [
        "a",
        "ch"
      ],
      [
        "re",
        "t"
      ],
      [
        "wi",
        "fe"
      ],
      [
        "Th",
        "y"
      ],
      [
        "de",
        "ed"
      ],
      [
        "la",
        "ck"
      ],
      [
        "A",
        "le"
      ],
      [
        "e",
        "unt"
      ],
      [
        "i",
        "g"
      ],
      [
        "m",
        "on"
      ],
      [
        "bet",
        "ter"
      ],
      [
        "nat",
        "ure"
      ],
      [
        "Ale",
        "x"
      ],
      [
        "C",
        "H"
      ],
      [
        "C",
        "ount"
      ],
      [
        "F",
        "lor"
      ],
      [
        "b",
        "us"
      ],
      [
        "w",
        "ard"
      ],
      [
        "th",
        "ose"
      ],
      [
        "at",
        "ter"
      ],
      [
        "le",
        "ave"
      ],
      [
        "tu",
        "ne"
      ],
      [
        "D",
        "o"
      ],
      [
        "g",
        "in"
      ],
      [
        "l",
        "ong"
      ],
      [
        "ar",
        "m"
      ],
      [
        "st",
        "and"
      ],
      [
        "be",
        "fore"
      ],
      [
        "Wh",
        "o"
      ],
      [
        "mo",
        "ther"
      ],
      [
        "na",
        "me"
      ],
      [
        "S",
        "OL"
      ],
      [
        "c",
        "ount"
      ],
      [
        "f",
        "ar"
      ],
      [
        "g",
        "i"
      ],
      [
        "g",
        "ri"
      ],
      [
        "l",
        "en"
      ],
      [
        "s",
        "on"
      ],
      [
        "ri",
        "ght"
      ],
      [
        "DI",
        "ER"
      ],
      [
        "_Ex",
        "eunt"
      ],
      [
        "CH",
        "AR"
      ],
      [
        "SOL",
        "DIER"
      ],
      [
        "G",
        "o"
      ],
      [
        "M",
        "I"
      ],
      [
        "n",
        "g"
      ],
      [
        "s",
        "ing"
      ],
      [
        "t",
        "ed"
      ],
      [
        "ou",
        "gh"
      ],
      [
        "or",
        "d"
      ],
      [
        "or",
        "e"
      ],
      [
        "wh",
        "ose"
      ],
      [
        "ra",
        "m"
      ],
      [
        "ad",
        "y"
      ],
      [
        "wor",
        "th"
      ],
      [
        "fir",
        "st"
      ],
      [
        "H",
        "is"
      ],
      [
        "c",
        "all"
      ],
      [
        "e",
        "m"
      ],
      [
        "f",
        "oo"
      ],
      [
        "p",
        "la"
      ],
      [
        "w",
        "ar"
      ],
      [
        "CHAR",
        "MI"
      ],
      [
        "CHARMI",
        "AN"
      ],
      [
        "T",
        "H"
      ],
      [
        "Y",
        "et"
      ],
      [
        "b",
        "est"
      ],
      [
        "p",
        "i"
      ],
      [
        "p",
        "ur"
      ],
      [
        "p",
        "ower"
      ],
      [
        "r",
        "ess"
      ],
      [
        "the",
        "se"
      ],
      [
        "on",
        "d"
      ],
      [
        "li",
        "ght"
      ],
      [
        "wor",
        "d"
      ],
      [
        "con",
        "t"
      ],
      [
        "see",
        "m"
      ],
      [
        "loo",
        "k"
      ],
      [
        "_Ex",
        "it"
      ],
      [
        "gra",
        "ce"
      ],
      [
        "und",
        "er"
      ],
      [
        "S",
        "CEN"
      ],
      [
        "c",
        "hi"
      ],
      [
        "g",
        "entle"
      ],
      [
        "h",
        "our"
      ],
      [
        "i",
        "es"
      ],
      [
        "k",
        "n"
      ],
      [
        "re",
        "e"
      ],
      [
        "hi",
        "gh"
      ],
      [
        "est",
        "y"
      ],
      [
        "man",
        "y"
      ],
      [
        "ple",
        "asure"
      ],
      [
        "SCEN",
        "E"
      ],
      [
        "O",
        "B"
      ],
      [
        "c",
        "ould"
      ],
      [
        "d",
        "y"
      ],
      [
        "in",
        "ess"
      ],
      [
        "an",
        "g"
      ],
      [
        "de",
        "ad"
      ],
      [
        "ru",
        "m"
      ],
      [
        "No",
        "t"
      ],
      [
        "pra",
        "ise"
      ],
      [
        "B",
        "US"
      ],
      [
        "G",
        "ER"
      ],
      [
        "M",
        "ESS"
      ],
      [
        "b",
        "es"
      ],
      [
        "b",
        "ar"
      ],
      [
        "b",
        "loo"
      ],
      [
        "b",
        "ring"
      ],
      [
        "f",
        "ound"
      ],
      [
        "f",
        "ull"
      ],
      [
        "g",
        "one"
      ],
      [
        "t",
        "en"
      ],
      [
        "ma",
        "id"
      ],
      [
        "pr",
        "ay"
      ],
      [
        "AR",
        "BUS"
      ],
      [
        "EN",
        "OB"
      ],
      [
        "EN",
        "GER"
      ],
      [
        "MESS",
        "ENGER"
      ],
      [
        "ENOB",
        "ARBUS"
      ],
      [
        "B",
        "ert"
      ],
      [
        "O",
        "F"
      ],
      [
        "Y",
        "our"
      ],
      [
        "a",
        "ble"
      ],
      [
        "n",
        "one"
      ],
      [
        "p",
        "ut"
      ],
      [
        "t",
        "ain"
      ],
      [
        "t",
        "ong"
      ],
      [
        "t",
        "wo"
      ],
      [
        "ou",
        "se"
      ],
      [
        "you",
        "ng"
      ],
      [
        "sel",
        "ves"
      ],
      [
        "qu",
        "i"
      ],
      [
        "He",
        "len"
      ],
      [
        "wom",
        "an"
      ],
      [
        "Bert",
        "ram"
      ],
      [
        "N",
        "ow"
      ],
      [
        "T",
        "is"
      ],
      [
        "a",
        "ke"
      ],
      [
        "b",
        "u"
      ],
      [
        "c",
        "es"
      ],
      [
        "d",
        "one"
      ],
      [
        "g",
        "r"
      ],
      [
        "p",
        "alace"
      ],
      [
        "r",
        "en"
      ],
      [
        "t",
        "ri"
      ],
      [
        "st",
        "er"
      ],
      [
        "se",
        "t"
      ],
      [
        "wh",
        "o"
      ],
      [
        "do",
        "st"
      ],
      [
        "ill",
        "on"
      ],
      [
        "ss",
        "illon"
      ],
      [
        "Ro",
        "ssillon"
      ],
      [
        "vir",
        "tu"
      ],
      [
        "A",
        "S"
      ],
      [
        "C",
        "A"
      ],
      [
        "G",
        "ood"
      ],
      [
        "N",
        "or"
      ],
      [
        "S",
        "ha"
      ],
      [
        "W",
        "ill"
      ],
      [
        "c",
        "y"
      ],
      [
        "m",
        "es"
      ],
      [
        "p",
        "en"
      ],
      [
        "s",
        "es"
      ],
      [
        "ou",
        "d"
      ],
      [
        "st",
        "e"
      ],
      [
        "re",
        "me"
      ],
      [
        "ha",
        "s"
      ],
      [
        "wh",
        "om"
      ],
      [
        "ke",
        "ep"
      ],
      [
        "do",
        "es"
      ],
      [
        "oo",
        "k"
      ],
      [
        "thing",
        "s"
      ],
      [
        "C",
        "le"
      ],
      [
        "b",
        "ra"
      ],
      [
        "k",
        "es"
      ],
      [
        "k",
        "ind"
      ],
      [
        "o",
        "pat"
      ],
      [
        "p",
        "re"
      ],
      [
        "p",
        "et"
      ],
      [
        "you",
        "th"
      ],
      [
        "be",
        "d"
      ],
      [
        "as",
        "on"
      ],
      [
        "ri",
        "a"
      ],
      [
        "ti",
        "ll"
      ],
      [
        "su",
        "m"
      ],
      [
        "ES",
        "AR"
      ],
      [
        "com",
        "es"
      ],
      [
        "vi",
        "a"
      ],
      [
        "di",
        "e"
      ],
      [
        "thought",
        "s"
      ],
      [
        "oll",
        "es"
      ],
      [
        "af",
        "ter"
      ],
      [
        "Par",
        "olles"
      ],
      [
        "CA",
        "ESAR"
      ],
      [
        "Cle",
        "opat"
      ],
      [
        "Cleopat",
        "ra"
      ],
      [
        "b",
        "a"
      ],
      [
        "b",
        "ro"
      ],
      [
        "c",
        "a"
      ],
      [
        "f",
        "er"
      ],
      [
        "f",
        "al"
      ],
      [
        "j",
        "e"
      ],
      [
        "m",
        "ind"
      ],
      [
        "ar",
        "k"
      ],
      [
        "be",
        "ar"
      ],
      [
        "hi",
        "p"
      ],
      [
        "lo",
        "se"
      ],
      [
        "ne",
        "ed"
      ],
      [
        "fa",
        "ce"
      ],
      [
        "fa",
        "ther"
      ],
      [
        "qu",
        "e"
      ],
      [
        "ran",
        "ce"
      ],
      [
        "Ro",
        "om"
      ],
      [
        "ho",
        "pe"
      ],
      [
        "kn",
        "ave"
      ],
      [
        "fal",
        "se"
      ],
      [
        "A",
        "t"
      ],
      [
        "F",
        "rom"
      ],
      [
        "L",
        "o"
      ],
      [
        "g",
        "l"
      ],
      [
        "g",
        "y"
      ],
      [
        "h",
        "us"
      ],
      [
        "p",
        "ain"
      ],
      [
        "r",
        "est"
      ],
      [
        "he",
        "d"
      ],
      [
        "it",
        "s"
      ],
      [
        "be",
        "en"
      ],
      [
        "Th",
        "an"
      ],
      [
        "li",
        "es"
      ],
      [
        "ri",
        "ed"
      ],
      [
        "al",
        "one"
      ],
      [
        "fe",
        "ct"
      ],
      [
        "ro",
        "om"
      ],
      [
        "com",
        "m"
      ],
      [
        "foo",
        "l"
      ],
      [
        "A",
        "y"
      ],
      [
        "T",
        "i"
      ],
      [
        "c",
        "ap"
      ],
      [
        "l",
        "ady"
      ],
      [
        "s",
        "po"
      ],
      [
        "t",
        "ra"
      ],
      [
        "ou",
        "l"
      ],
      [
        "in",
        "t"
      ],
      [
        "in",
        "to"
      ],
      [
        "an",
        "other"
      ],
      [
        "ve",
        "d"
      ],
      [
        "and",
        "ria"
      ],
      [
        "me",
        "d"
      ],
      [
        "thou",
        "t"
      ],
      [
        "fe",
        "ar"
      ],
      [
        "ser",
        "ve"
      ],
      [
        "str",
        "ong"
      ],
      [
        "ans",
        "w"
      ],
      [
        "Alex",
        "andria"
      ],
      [
        "Count",
        "ess"
      ],
      [
        "Flor",
        "ence"
      ],
      [
        "bloo",
        "d"
      ],
      [
        "tong",
        "ue"
      ],
      [
        ",",
        "—"
      ],
      [
        "E",
        "gy"
      ],
      [
        "N",
        "ay"
      ],
      [
        "O",
        "ur"
      ],
      [
        "S",
        "he"
      ],
      [
        "b",
        "and"
      ],
      [
        "c",
        "ar"
      ],
      [
        "f",
        "oll"
      ],
      [
        "h",
        "ate"
      ],
      [
        "h",
        "arm"
      ],
      [
        "i",
        "ther"
      ],
      [
        "t",
        "le"
      ],
      [
        "t",
        "al"
      ],
      [
        "an",
        "ge"
      ],
      [
        "ha",
        "pp"
      ],
      [
        "for",
        "th"
      ],
      [
        "for",
        "tune"
      ],
      [
        "ent",
        "s"
      ],
      [
        "am",
        "p"
      ],
      [
        "su",
        "re"
      ],
      [
        "lord",
        "s"
      ],
      [
        "let",
        "ter"
      ],
      [
        "again",
        "st"
      ],
      [
        "friend",
        "s"
      ],
      [
        "Sha",
        "ll"
      ],
      [
        "H",
        "er"
      ],
      [
        "S",
        "ince"
      ],
      [
        "a",
        "ir"
      ],
      [
        "b",
        "id"
      ],
      [
        "d",
        "u"
      ],
      [
        "d",
        "rum"
      ],
      [
        "e",
        "e"
      ],
      [
        "f",
        "t"
      ],
      [
        "g",
        "row"
      ],
      [
        "h",
        "or"
      ],
      [
        "i",
        "c"
      ],
      [
        "k",
        "ill"
      ],
      [
        "m",
        "atter"
      ],
      [
        "p",
        "h"
      ],
      [
        "p",
        "ast"
      ],
      [
        "w",
        "ish"
      ],
      [
        "st",
        "ate"
      ],
      [
        "he",
        "l"
      ],
      [
        "ch",
        "ar"
      ],
      [
        "ce",
        "ive"
      ],
      [
        "ti",
        "mes"
      ],
      [
        "su",
        "b"
      ],
      [
        "The",
        "y"
      ],
      [
        "gain",
        "st"
      ],
      [
        "um",
        "b"
      ],
      [
        "vir",
        "gin"
      ],
      [
        "rep",
        "ort"
      ],
      [
        "pres",
        "ent"
      ],
      [
        "au",
        "ght"
      ],
      [
        "bus",
        "iness"
      ],
      [
        "answ",
        "er"
      ],
      [
        "C",
        "ome"
      ],
      [
        "L",
        "ord"
      ],
      [
        "W",
        "hi"
      ],
      [
        "a",
        "g"
      ],
      [
        "c",
        "ess"
      ],
      [
        "c",
        "tion"
      ],
      [
        "d",
        "own"
      ],
      [
        "h",
        "ouse"
      ],
      [
        "i",
        "e"
      ],
      [
        "l",
        "our"
      ],
      [
        "n",
        "ing"
      ],
      [
        "t",
        "ress"
      ],
      [
        "u",
        "d"
      ],
      [
        "w",
        "hi"
      ],
      [
        "or",
        "row"
      ],
      [
        "no",
        "ble"
      ],
      [
        "se",
        "en"
      ],
      [
        "al",
        "th"
      ],
      [
        "thy",
        "self"
      ],
      [
        "are",
        "well"
      ],
      [
        "fa",
        "ul"
      ],
      [
        "know",
        "s"
      ],
      [
        "Thou",
        "gh"
      ],
      [
        "ci",
        "ous"
      ],
      [
        "cour",
        "t"
      ],
      [
        "pla",
        "ce"
      ],
      [
        "Egy",
        "pt"
      ],
      [
        "A",
        "ll"
      ],
      [
        "T",
        "LE"
      ],
      [
        "e",
        "ven"
      ],
      [
        "g",
        "re"
      ],
      [
        "h",
        "ome"
      ],
      [
        "j",
        "o"
      ],
      [
        "k",
        "en"
      ],
      [
        "l",
        "ay"
      ],
      [
        "p",
        "ar"
      ],
      [
        "t",
        "re"
      ],
      [
        "v",
        "o"
      ],
      [
        "th",
        "us"
      ],
      [
        "in",
        "deed"
      ],
      [
        "at",
        "ch"
      ],
      [
        "ar",
        "y"
      ],
      [
        "ing",
        "s"
      ],
      [
        "your",
        "self"
      ],
      [
        "ess",
        "eng"
      ],
      [
        "pr",
        "oud"
      ],
      [
        "vi",
        "ce"
      ],
      [
        "si",
        "ck"
      ],
      [
        "pro",
        "ve"
      ],
      [
        "II",
        "I"
      ],
      [
        "hus",
        "band"
      ],
      [
        "C",
        "T"
      ],
      [
        "G",
        "EN"
      ],
      [
        "H",
        "ere"
      ],
      [
        "L",
        "a"
      ],
      [
        "O",
        "W"
      ],
      [
        "R",
        "ome"
      ],
      [
        "S",
        "ir"
      ],
      [
        "W",
        "ID"
      ],
      [
        "d",
        "en"
      ],
      [
        "i",
        "er"
      ],
      [
        "i",
        "ence"
      ],
      [
        "o",
        "b"
      ],
      [
        "p",
        "ass"
      ],
      [
        "r",
        "own"
      ],
      [
        "ou",
        "ght"
      ],
      [
        "st",
        "ay"
      ],
      [
        "st",
        "ri"
      ],
      [
        "ve",
        "l"
      ],
      [
        "it",
        "ion"
      ],
      [
        "le",
        "ar"
      ],
      [
        "my",
        "self"
      ],
      [
        "ow",
        "s"
      ],
      [
        "for",
        "m"
      ],
      [
        "ri",
        "ch"
      ],
      [
        "so",
        "ld"
      ],
      [
        "fe",
        "ll"
      ],
      [
        "po",
        "se"
      ],
      [
        "day",
        "s"
      ],
      [
        "el",
        "se"
      ],
      [
        "mis",
        "tress"
      ],
      [
        "ig",
        "n"
      ],
      [
        "Ti",
        "me"
      ],
      [
        "TLE",
        "M"
      ],
      [
        "GEN",
        "TLEM"
      ],
      [
        "WID",
        "OW"
      ],
      [
        "P",
        "ID"
      ],
      [
        "b",
        "r"
      ],
      [
        "c",
        "ou"
      ],
      [
        "e",
        "w"
      ],
      [
        "i",
        "re"
      ],
      [
        "p",
        "on"
      ],
      [
        "s",
        "l"
      ],
      [
        "s",
        "in"
      ],
      [
        "s",
        "ent"
      ],
      [
        "t",
        "urn"
      ],
      [
        "u",
        "ck"
      ],
      [
        "v",
        "il"
      ],
      [
        "on",
        "ly"
      ],
      [
        "st",
        "ran"
      ],
      [
        "lo",
        "ves"
      ],
      [
        "LE",
        "PID"
      ],
      [
        "fe",
        "w"
      ],
      [
        "him",
        "self"
      ],
      [
        "wor",
        "ds"
      ],
      [
        "ak",
        "ing"
      ],
      [
        "go",
        "t"
      ],
      [
        "there",
        "fore"
      ],
      [
        "sp",
        "ir"
      ],
      [
        "ert",
        "ain"
      ],
      [
        "ear",
        "th"
      ],
      [
        "che",
        "e"
      ],
      [
        "reme",
        "mb"
      ],
      [
        "Lo",
        "ve"
      ],
      [
        "hel",
        "p"
      ],
      [
        "GENTLEM",
        "AN"
      ],
      [
        "LEPID",
        "US"
      ],
      [
        "C",
        "harm"
      ],
      [
        "O",
        "n"
      ],
      [
        "P",
        "om"
      ],
      [
        "R",
        "I"
      ],
      [
        "U",
        "pon"
      ],
      [
        "e",
        "ach"
      ],
      [
        "j",
        "ust"
      ],
      [
        "l",
        "st"
      ],
      [
        "o",
        "p"
      ],
      [
        "s",
        "ight"
      ],
      [
        "s",
        "ince"
      ],
      [
        "v",
        "our"
      ],
      [
        "v",
        "ant"
      ],
      [
        "w",
        "in"
      ],
      [
        "en",
        "er"
      ],
      [
        "of",
        "t"
      ],
      [
        "be",
        "lie"
      ],
      [
        "de",
        "c"
      ],
      [
        "ma",
        "in"
      ],
      [
        "ma",
        "ster"
      ],
      [
        "su",
        "r"
      ],
      [
        "ne",
        "ar"
      ],
      [
        "wor",
        "n"
      ],
      [
        "qu",
        "es"
      ],
      [
        "ard",
        "on"
      ],
      [
        "swe",
        "ar"
      ],
      [
        "si",
        "de"
      ],
      [
        "loo",
        "ks"
      ],
      [
        "pl",
        "ay"
      ],
      [
        "Go",
        "d"
      ],
      [
        "chi",
        "ld"
      ],
      [
        "qui",
        "ck"
      ],
      [
        "sum",
        "mer"
      ],
      [
        "Charm",
        "ian"
      ],
      [
        "Pom",
        "pe"
      ],
      [
        "F",
        "rance"
      ],
      [
        "M",
        "ay"
      ],
      [
        "O",
        "TH"
      ],
      [
        "U",
        "n"
      ],
      [
        "b",
        "orn"
      ],
      [
        "b",
        "lack"
      ],
      [
        "c",
        "reat"
      ],
      [
        "d",
        "aught"
      ],
      [
        "g",
        "et"
      ],
      [
        "j",
        "esty"
      ],
      [
        "l",
        "it"
      ],
      [
        "s",
        "en"
      ],
      [
        "t",
        "ing"
      ],
      [
        "v",
        "ent"
      ],
      [
        "er",
        "n"
      ],
      [
        "at",
        "ed"
      ],
      [
        "on",
        "ce"
      ],
      [
        "ma",
        "jesty"
      ],
      [
        "your",
        "s"
      ],
      [
        "wor",
        "thy"
      ],
      [
        "la",
        "w"
      ],
      [
        "com",
        "p"
      ],
      [
        "te",
        "m"
      ],
      [
        "than",
        "k"
      ],
      [
        "sa",
        "ke"
      ],
      [
        "ple",
        "ase"
      ],
      [
        "fi",
        "re"
      ],
      [
        "We",
        "ll"
      ],
      [
        "wr",
        "ong"
      ],
      [
        "ren",
        "ch"
      ],
      [
        "La",
        "few"
      ],
      [
        "daught",
        "er"
      ],
      [
        "D",
        "ian"
      ],
      [
        "F",
        "ul"
      ],
      [
        "K",
        "ing"
      ],
      [
        "M",
        "ad"
      ],
      [
        "W",
        "as"
      ],
      [
        "c",
        "or"
      ],
      [
        "f",
        "all"
      ],
      [
        "f",
        "ur"
      ],
      [
        "g",
        "a"
      ],
      [
        "g",
        "old"
      ],
      [
        "h",
        "ence"
      ],
      [
        "i",
        "ce"
      ],
      [
        "l",
        "end"
      ],
      [
        "m",
        "in"
      ],
      [
        "r",
        "ay"
      ],
      [
        "s",
        "end"
      ],
      [
        "v",
        "y"
      ],
      [
        "w",
        "ant"
      ],
      [
        "th",
        "r"
      ],
      [
        "ou",
        "ch"
      ],
      [
        "or",
        "s"
      ],
      [
        "en",
        "ough"
      ],
      [
        "wi",
        "lt"
      ],
      [
        "as",
        "k"
      ],
      [
        "lo",
        "st"
      ],
      [
        "ra",
        "w"
      ],
      [
        "ra",
        "ther"
      ],
      [
        "Wh",
        "ose"
      ],
      [
        "ver",
        "se"
      ],
      [
        "su",
        "n"
      ],
      [
        "ad",
        "s"
      ],
      [
        "love",
        "d"
      ],
      [
        "sha",
        "lt"
      ],
      [
        "pe",
        "ct"
      ],
      [
        "ru",
        "n"
      ],
      [
        "con",
        "f"
      ],
      [
        "bo",
        "y"
      ],
      [
        "sa",
        "id"
      ],
      [
        "There",
        "fore"
      ],
      [
        "ret",
        "urn"
      ],
      [
        "virtu",
        "e"
      ],
      [
        "ba",
        "ck"
      ],
      [
        "ca",
        "use"
      ],
      [
        "ener",
        "al"
      ],
      [
        "Pompe",
        "y"
      ],
      [
        "Ful",
        "via"
      ],
      [
        "A",
        "CT"
      ],
      [
        "F",
        "rench"
      ],
      [
        "H",
        "ave"
      ],
      [
        "I",
        "V"
      ],
      [
        "S",
        "ome"
      ],
      [
        "T",
        "ill"
      ],
      [
        "c",
        "lo"
      ],
      [
        "g",
        "g"
      ],
      [
        "g",
        "ave"
      ],
      [
        "i",
        "ers"
      ],
      [
        "l",
        "es"
      ],
      [
        "p",
        "s"
      ],
      [
        "p",
        "ity"
      ],
      [
        "s",
        "le"
      ],
      [
        "s",
        "om"
      ],
      [
        "s",
        "oul"
      ],
      [
        "u",
        "ch"
      ],
      [
        "w",
        "ind"
      ],
      [
        "in",
        "c"
      ],
      [
        "re",
        "ad"
      ],
      [
        "re",
        "ason"
      ],
      [
        "ed",
        "s"
      ],
      [
        "ch",
        "ange"
      ],
      [
        "for",
        "t"
      ],
      [
        "we",
        "l"
      ],
      [
        "sha",
        "me"
      ],
      [
        "ck",
        "s"
      ],
      [
        "po",
        "s"
      ],
      [
        "sa",
        "me"
      ],
      [
        "ex",
        "ce"
      ],
      [
        "des",
        "p"
      ],
      [
        "des",
        "er"
      ],
      [
        "im",
        "p"
      ],
      [
        "mar",
        "ry"
      ],
      [
        "mar",
        "ried"
      ],
      [
        "wr",
        "it"
      ],
      [
        "hour",
        "s"
      ],
      [
        "bro",
        "ther"
      ],
      [
        "que",
        "en"
      ],
      [
        "lords",
        "hip"
      ],
      [
        "esseng",
        "er"
      ],
      [
        "stran",
        "ge"
      ],
      [
        "D",
        "id"
      ],
      [
        "F",
        "arewell"
      ],
      [
        "G",
        "ive"
      ],
      [
        "R",
        "e"
      ],
      [
        "S",
        "O"
      ],
      [
        "W",
        "id"
      ],
      [
        "a",
        "id"
      ],
      [
        "c",
        "old"
      ],
      [
        "c",
        "red"
      ],
      [
        "d",
        "om"
      ],
      [
        "i",
        "ous"
      ],
      [
        "j",
        "ud"
      ],
      [
        "p",
        "ay"
      ],
      [
        "s",
        "ad"
      ],
      [
        "s",
        "orrow"
      ],
      [
        "t",
        "ak"
      ],
      [
        "w",
        "ars"
      ],
      [
        "y",
        "e"
      ],
      [
        "th",
        "ri"
      ],
      [
        "in",
        "es"
      ],
      [
        "is",
        "s"
      ],
      [
        "at",
        "tend"
      ],
      [
        "st",
        "ra"
      ],
      [
        "of",
        "fi"
      ],
      [
        "it",
        "self"
      ],
      [
        "wi",
        "thout"
      ],
      [
        "ch",
        "o"
      ],
      [
        "ce",
        "i"
      ],
      [
        "de",
        "li"
      ],
      [
        "wh",
        "y"
      ],
      [
        "su",
        "f"
      ],
      [
        "ain",
        "t"
      ],
      [
        "hon",
        "est"
      ],
      [
        "ser",
        "vice"
      ],
      [
        "fl",
        "es"
      ],
      [
        "wr",
        "ite"
      ],
      [
        "hast",
        "e"
      ],
      [
        "Alex",
        "as"
      ],
      [
        "Helen",
        "a"
      ],
      [
        "je",
        "ct"
      ],
      [
        "foll",
        "ow"
      ],
      [
        "happ",
        "y"
      ],
      [
        "jo",
        "y"
      ],
      [
        "spir",
        "it"
      ],
      [
        "belie",
        "ve"
      ],
      [
        "lit",
        "tle"
      ],
      [
        "fur",
        "ther"
      ],
      [
        "Wid",
        "ow"
      ],
      [
        "A",
        "Y"
      ],
      [
        "A",
        "LE"
      ],
      [
        "A",
        "gainst"
      ],
      [
        "M",
        "ine"
      ],
      [
        "S",
        "ay"
      ],
      [
        "S",
        "AY"
      ],
      [
        "a",
        "ct"
      ],
      [
        "b",
        "ad"
      ],
      [
        "b",
        "right"
      ],
      [
        "c",
        "ha"
      ],
      [
        "c",
        "ri"
      ],
      [
        "c",
        "are"
      ],
      [
        "d",
        "ow"
      ],
      [
        "d",
        "are"
      ],
      [
        "f",
        "ree"
      ],
      [
        "g",
        "eneral"
      ],
      [
        "h",
        "um"
      ],
      [
        "i",
        "ed"
      ],
      [
        "l",
        "an"
      ],
      [
        "o",
        "th"
      ],
      [
        "o",
        "ath"
      ],
      [
        "p",
        "ardon"
      ],
      [
        "s",
        "word"
      ],
      [
        "u",
        "ght"
      ],
      [
        "v",
        "a"
      ],
      [
        "w",
        "it"
      ],
      [
        "w",
        "ast"
      ],
      [
        "z",
        "e"
      ],
      [
        "is",
        "t"
      ],
      [
        "to",
        "ld"
      ],
      [
        "he",
        "ad"
      ],
      [
        "me",
        "an"
      ],
      [
        "ed",
        "ing"
      ],
      [
        "lo",
        "ss"
      ],
      [
        "we",
        "en"
      ],
      [
        "we",
        "ar"
      ],
      [
        "li",
        "ves"
      ],
      [
        "ma",
        "kes"
      ],
      [
        "ti",
        "c"
      ],
      [
        "su",
        "c"
      ],
      [
        "su",
        "it"
      ],
      [
        "ad",
        "d"
      ],
      [
        "pe",
        "ar"
      ],
      [
        "fa",
        "ith"
      ],
      [
        "la",
        "me"
      ],
      [
        "com",
        "mon"
      ],
      [
        "tru",
        "st"
      ],
      [
        "bo",
        "dy"
      ],
      [
        "vi",
        "ew"
      ],
      [
        "si",
        "e"
      ],
      [
        "them",
        "selves"
      ],
      [
        "other",
        "s"
      ],
      [
        "des",
        "ire"
      ],
      [
        "bet",
        "ween"
      ],
      [
        "sc",
        "ar"
      ],
      [
        "tend",
        "er"
      ],
      [
        "eng",
        "th"
      ],
      [
        "Flor",
        "ent"
      ],
      [
        "gri",
        "ef"
      ],
      [
        "comm",
        "and"
      ],
      [
        "du",
        "ke"
      ],
      [
        "virgin",
        "ity"
      ],
      [
        "faul",
        "ts"
      ],
      [
        "ques",
        "tion"
      ],
      [
        "OTH",
        "SAY"
      ],
      [
        "Mad",
        "am"
      ],
      [
        "SO",
        "OTHSAY"
      ],
      [
        "SOOTHSAY",
        "ER"
      ],
      [
        "L",
        "i"
      ],
      [
        "O",
        "ct"
      ],
      [
        "X",
        "AS"
      ],
      [
        "_",
        "A"
      ],
      [
        "c",
        "ti"
      ],
      [
        "c",
        "ur"
      ],
      [
        "c",
        "ure"
      ],
      [
        "c",
        "ase"
      ],
      [
        "c",
        "amp"
      ],
      [
        "e",
        "c"
      ],
      [
        "e",
        "at"
      ],
      [
        "g",
        "ro"
      ],
      [
        "i",
        "gh"
      ],
      [
        "i",
        "de"
      ],
      [
        "i",
        "ly"
      ],
      [
        "l",
        "s"
      ],
      [
        "n",
        "ed"
      ],
      [
        "t",
        "on"
      ],
      [
        "w",
        "ond"
      ],
      [
        "x",
        "t"
      ],
      [
        "es",
        "sed"
      ],
      [
        "is",
        "ed"
      ],
      [
        "at",
        "er"
      ],
      [
        "st",
        "o"
      ],
      [
        "st",
        "re"
      ],
      [
        "lo",
        "v"
      ],
      [
        "our",
        "selves"
      ],
      [
        "with",
        "in"
      ],
      [
        "fe",
        "it"
      ],
      [
        "pr",
        "ess"
      ],
      [
        "know",
        "n"
      ],
      [
        "qu",
        "al"
      ],
      [
        "con",
        "d"
      ],
      [
        "il",
        "s"
      ],
      [
        "sa",
        "w"
      ],
      [
        "may",
        "st"
      ],
      [
        "um",
        "ent"
      ],
      [
        "led",
        "ge"
      ],
      [
        "deed",
        "s"
      ],
      [
        "gi",
        "ven"
      ],
      [
        "pur",
        "pose"
      ],
      [
        "bes",
        "ee"
      ],
      [
        "ste",
        "al"
      ],
      [
        "cap",
        "tain"
      ],
      [
        "Whi",
        "lst"
      ],
      [
        "chee",
        "k"
      ],
      [
        "sen",
        "se"
      ],
      [
        "ALE",
        "XAS"
      ],
      [
        "Oct",
        "a"
      ],
      [
        "besee",
        "ch"
      ],
      [
        "1",
        "0"
      ],
      [
        "D",
        "u"
      ],
      [
        "H",
        "ath"
      ],
      [
        "L",
        "ook"
      ],
      [
        "M",
        "ar"
      ],
      [
        "M",
        "AR"
      ],
      [
        "M",
        "ars"
      ],
      [
        "M",
        "ake"
      ],
      [
        "M",
        "essenger"
      ],
      [
        "P",
        "alace"
      ],
      [
        "S",
        "pe"
      ],
      [
        "W",
        "ere"
      ],
      [
        "W",
        "ould"
      ],
      [
        "b",
        "on"
      ],
      [
        "d",
        "ou"
      ],
      [
        "d",
        "raw"
      ],
      [
        "f",
        "o"
      ],
      [
        "f",
        "it"
      ],
      [
        "g",
        "if"
      ],
      [
        "k",
        "new"
      ],
      [
        "l",
        "ate"
      ],
      [
        "m",
        "it"
      ],
      [
        "o",
        "ver"
      ],
      [
        "t",
        "w"
      ],
      [
        "in",
        "st"
      ],
      [
        "en",
        "as"
      ],
      [
        "is",
        "on"
      ],
      [
        "is",
        "ter"
      ],
      [
        "he",
        "ther"
      ],
      [
        "ow",
        "ers"
      ],
      [
        "lo",
        "ving"
      ],
      [
        "Th",
        "us"
      ],
      [
        "de",
        "m"
      ],
      [
        "li",
        "ving"
      ],
      [
        "pr",
        "of"
      ],
      [
        "pr",
        "om"
      ],
      [
        "us",
        "h"
      ],
      [
        "fa",
        "vour"
      ],
      [
        "la",
        "st"
      ],
      [
        "For",
        "tune"
      ],
      [
        "say",
        "s"
      ],
      [
        "te",
        "ars"
      ],
      [
        "think",
        "s"
      ],
      [
        "gra",
        "cious"
      ],
      [
        "part",
        "s"
      ],
      [
        "ho",
        "ly"
      ],
      [
        "ment",
        "s"
      ],
      [
        "wo",
        "e"
      ],
      [
        "Par",
        "is"
      ],
      [
        "cont",
        "ent"
      ],
      [
        "ang",
        "er"
      ],
      [
        "At",
        "tend"
      ],
      [
        "spo",
        "ke"
      ],
      [
        "hor",
        "se"
      ],
      [
        "sold",
        "ier"
      ],
      [
        "tem",
        "pt"
      ],
      [
        "Dian",
        "a"
      ],
      [
        "sle",
        "ep"
      ],
      [
        "fles",
        "h"
      ],
      [
        "Florent",
        "ine"
      ],
      [
        "Li",
        "ke"
      ],
      [
        "1",
        "2"
      ],
      [
        "1",
        "3"
      ],
      [
        "1",
        "4"
      ],
      [
        "A",
        "l"
      ],
      [
        "A",
        "n"
      ],
      [
        "A",
        "no"
      ],
      [
        "C",
        "om"
      ],
      [
        "C",
        "ap"
      ],
      [
        "E",
        "D"
      ],
      [
        "E",
        "ven"
      ],
      [
        "F",
        "lour"
      ],
      [
        "G",
        "RI"
      ],
      [
        "L",
        "L"
      ],
      [
        "L",
        "or"
      ],
      [
        "L",
        "ep"
      ],
      [
        "M",
        "a"
      ],
      [
        "M",
        "ore"
      ],
      [
        "a",
        "ves"
      ],
      [
        "b",
        "it"
      ],
      [
        "b",
        "our"
      ],
      [
        "b",
        "row"
      ],
      [
        "e",
        "ous"
      ],
      [
        "l",
        "f"
      ],
      [
        "l",
        "ust"
      ],
      [
        "m",
        "us"
      ],
      [
        "r",
        "as"
      ],
      [
        "r",
        "ink"
      ],
      [
        "s",
        "and"
      ],
      [
        "s",
        "la"
      ],
      [
        "s",
        "ave"
      ],
      [
        "s",
        "kill"
      ],
      [
        "s",
        "worn"
      ],
      [
        "t",
        "ouch"
      ],
      [
        "v",
        "ow"
      ],
      [
        "v",
        "ere"
      ],
      [
        "w",
        "is"
      ],
      [
        "th",
        "i"
      ],
      [
        "st",
        "or"
      ],
      [
        "st",
        "ore"
      ],
      [
        "to",
        "ge"
      ],
      [
        "se",
        "a"
      ],
      [
        "re",
        "mo"
      ],
      [
        "be",
        "at"
      ],
      [
        "de",
        "ep"
      ],
      [
        "li",
        "c"
      ],
      [
        "thou",
        "sand"
      ],
      [
        "ver",
        "s"
      ],
      [
        "id",
        "us"
      ],
      [
        "wor",
        "k"
      ],
      [
        "wor",
        "se"
      ],
      [
        "mor",
        "tal"
      ],
      [
        "con",
        "c"
      ],
      [
        "ap",
        "pro"
      ],
      [
        "si",
        "m"
      ],
      [
        "spe",
        "ed"
      ],
      [
        "heart",
        "s"
      ],
      [
        "great",
        "est"
      ],
      [
        "too",
        "k"
      ],
      [
        "ser",
        "vant"
      ],
      [
        "hea",
        "vy"
      ],
      [
        "gu",
        "e"
      ],
      [
        "ac",
        "qu"
      ],
      [
        "new",
        "s"
      ],
      [
        "bre",
        "ak"
      ],
      [
        "bre",
        "ath"
      ],
      [
        "res",
        "pect"
      ],
      [
        "pri",
        "de"
      ],
      [
        "letter",
        "s"
      ],
      [
        "ph",
        "y"
      ],
      [
        "char",
        "ge"
      ],
      [
        "fell",
        "ow"
      ],
      [
        "cou",
        "nter"
      ],
      [
        "dec",
        "ay"
      ],
      [
        "suf",
        "fer"
      ],
      [
        "sie",
        "ur"
      ],
      [
        "ton",
        "ight"
      ],
      [
        "Octa",
        "via"
      ],
      [
        "Spe",
        "ak"
      ],
      [
        "Ano",
        "ther"
      ],
      [
        "Flour",
        "ish"
      ],
      [
        "Lor",
        "ds"
      ],
      [
        "Lep",
        "idus"
      ],
      [
        "toge",
        "ther"
      ],
      [
        "A",
        "re"
      ],
      [
        "A",
        "gri"
      ],
      [
        "A",
        "GRI"
      ],
      [
        "E",
        "no"
      ],
      [
        "G",
        "entle"
      ],
      [
        "M",
        "P"
      ],
      [
        "O",
        "ne"
      ],
      [
        "P",
        "PA"
      ],
      [
        "S",
        "t"
      ],
      [
        "S",
        "old"
      ],
      [
        "T",
        "ake"
      ],
      [
        "V",
        "I"
      ],
      [
        "W",
        "i"
      ],
      [
        "b",
        "er"
      ],
      [
        "b",
        "ir"
      ],
      [
        "b",
        "ound"
      ],
      [
        "c",
        "ed"
      ],
      [
        "c",
        "use"
      ],
      [
        "c",
        "ertain"
      ],
      [
        "d",
        "ut"
      ],
      [
        "d",
        "ark"
      ],
      [
        "e",
        "ch"
      ],
      [
        "f",
        "ing"
      ],
      [
        "f",
        "am"
      ],
      [
        "f",
        "ine"
      ],
      [
        "g",
        "ar"
      ],
      [
        "h",
        "y"
      ],
      [
        "l",
        "ing"
      ],
      [
        "m",
        "s"
      ],
      [
        "m",
        "ir"
      ],
      [
        "m",
        "end"
      ],
      [
        "n",
        "ers"
      ],
      [
        "p",
        "es"
      ],
      [
        "r",
        "ant"
      ],
      [
        "s",
        "il"
      ],
      [
        "s",
        "ound"
      ],
      [
        "t",
        "wi"
      ],
      [
        "u",
        "ri"
      ],
      [
        "w",
        "ater"
      ],
      [
        "th",
        "ree"
      ],
      [
        "es",
        "e"
      ],
      [
        "is",
        "ing"
      ],
      [
        "at",
        "es"
      ],
      [
        "st",
        "ain"
      ],
      [
        "he",
        "ard"
      ],
      [
        "he",
        "alth"
      ],
      [
        "se",
        "ver"
      ],
      [
        "re",
        "w"
      ],
      [
        "re",
        "cei"
      ],
      [
        "ha",
        "lf"
      ],
      [
        "for",
        "ce"
      ],
      [
        "not",
        "e"
      ],
      [
        "Th",
        "ose"
      ],
      [
        "de",
        "light"
      ],
      [
        "we",
        "ak"
      ],
      [
        "ke",
        "pt"
      ],
      [
        "et",
        "s"
      ],
      [
        "so",
        "on"
      ],
      [
        "so",
        "vere"
      ],
      [
        "su",
        "e"
      ],
      [
        "su",
        "p"
      ],
      [
        "fe",
        "ction"
      ],
      [
        "ru",
        "pt"
      ],
      [
        "ck",
        "ed"
      ],
      [
        "mo",
        "tion"
      ],
      [
        "know",
        "ledge"
      ],
      [
        "can",
        "st"
      ],
      [
        "con",
        "st"
      ],
      [
        "con",
        "found"
      ],
      [
        "il",
        "ity"
      ],
      [
        "ct",
        "ed"
      ],
      [
        "go",
        "d"
      ],
      [
        "go",
        "ing"
      ],
      [
        "should",
        "st"
      ],
      [
        "then",
        "ce"
      ],
      [
        "spe",
        "ech"
      ],
      [
        "hon",
        "esty"
      ],
      [
        "bl",
        "ess"
      ],
      [
        "Be",
        "fore"
      ],
      [
        "pp",
        "a"
      ],
      [
        "pat",
        "ience"
      ],
      [
        "ab",
        "out"
      ],
      [
        "co",
        "ver"
      ],
      [
        "co",
        "lour"
      ],
      [
        "wom",
        "en"
      ],
      [
        "che",
        "d"
      ],
      [
        "str",
        "ength"
      ],
      [
        "show",
        "s"
      ],
      [
        "ef",
        "fect"
      ],
      [
        "gi",
        "ves"
      ],
      [
        "bar",
        "bus"
      ],
      [
        "gr",
        "ant"
      ],
      [
        "bra",
        "ve"
      ],
      [
        "gl",
        "ass"
      ],
      [
        "tre",
        "asure"
      ],
      [
        "thr",
        "ough"
      ],
      [
        "oath",
        "s"
      ],
      [
        "suc",
        "cess"
      ],
      [
        "gif",
        "t"
      ],
      [
        "Attend",
        "ant"
      ],
      [
        "Cap",
        "tain"
      ],
      [
        "ED",
        "Y"
      ],
      [
        "sla",
        "ve"
      ],
      [
        "phy",
        "si"
      ],
      [
        "Agri",
        "ppa"
      ],
      [
        "AGRI",
        "PPA"
      ],
      [
        "Eno",
        "barbus"
      ],
      [
        "Wi",
        "thout"
      ],
      [
        "C",
        "l"
      ],
      [
        "C",
        "an"
      ],
      [
        "D",
        "e"
      ],
      [
        "G",
        "EDY"
      ],
      [
        "M",
        "A"
      ],
      [
        "M",
        "e"
      ],
      [
        "M",
        "o"
      ],
      [
        "M",
        "use"
      ],
      [
        "_",
        "To"
      ],
      [
        "a",
        "the"
      ],
      [
        "b",
        "ri"
      ],
      [
        "b",
        "ur"
      ],
      [
        "c",
        "ru"
      ],
      [
        "c",
        "rown"
      ],
      [
        "d",
        "well"
      ],
      [
        "d",
        "anger"
      ],
      [
        "e",
        "ld"
      ],
      [
        "f",
        "y"
      ],
      [
        "f",
        "et"
      ],
      [
        "f",
        "ra"
      ],
      [
        "f",
        "ill"
      ],
      [
        "f",
        "res"
      ],
      [
        "f",
        "oul"
      ],
      [
        "g",
        "n"
      ],
      [
        "g",
        "ed"
      ],
      [
        "i",
        "ent"
      ],
      [
        "i",
        "us"
      ],
      [
        "m",
        "our"
      ],
      [
        "n",
        "er"
      ],
      [
        "n",
        "umb"
      ],
      [
        "p",
        "il"
      ],
      [
        "p",
        "ap"
      ],
      [
        "s",
        "al"
      ],
      [
        "w",
        "a"
      ],
      [
        "in",
        "s"
      ],
      [
        "in",
        "ter"
      ],
      [
        "in",
        "vent"
      ],
      [
        "er",
        "ed"
      ],
      [
        "an",
        "ti"
      ],
      [
        "an",
        "cy"
      ],
      [
        "is",
        "hed"
      ],
      [
        "he",
        "ll"
      ],
      [
        "se",
        "cond"
      ],
      [
        "me",
        "ll"
      ],
      [
        "be",
        "hold"
      ],
      [
        "be",
        "gin"
      ],
      [
        "hi",
        "de"
      ],
      [
        "ch",
        "oo"
      ],
      [
        "ut",
        "e"
      ],
      [
        "we",
        "ep"
      ],
      [
        "we",
        "alth"
      ],
      [
        "ri",
        "age"
      ],
      [
        "et",
        "ern"
      ],
      [
        "al",
        "most"
      ],
      [
        "ra",
        "h"
      ],
      [
        "fe",
        "ars"
      ],
      [
        "end",
        "s"
      ],
      [
        "ur",
        "es"
      ],
      [
        "wor",
        "st"
      ],
      [
        "sh",
        "ort"
      ],
      [
        "po",
        "int"
      ],
      [
        "TRA",
        "GEDY"
      ],
      [
        "ro",
        "y"
      ],
      [
        "ion",
        "s"
      ],
      [
        "tru",
        "ly"
      ],
      [
        "ap",
        "pear"
      ],
      [
        "bo",
        "som"
      ],
      [
        "go",
        "es"
      ],
      [
        "way",
        "s"
      ],
      [
        "sp",
        "ort"
      ],
      [
        "use",
        "d"
      ],
      [
        "fl",
        "atter"
      ],
      [
        "pp",
        "ed"
      ],
      [
        "dear",
        "est"
      ],
      [
        "bre",
        "ast"
      ],
      [
        "off",
        "end"
      ],
      [
        "cour",
        "se"
      ],
      [
        "stand",
        "s"
      ],
      [
        "call",
        "s"
      ],
      [
        "full",
        "y"
      ],
      [
        "maid",
        "en"
      ],
      [
        "virtu",
        "ous"
      ],
      [
        "need",
        "s"
      ],
      [
        "rememb",
        "rance"
      ],
      [
        "win",
        "ter"
      ],
      [
        "law",
        "ful"
      ],
      [
        "fort",
        "un"
      ],
      [
        "tak",
        "en"
      ],
      [
        "offi",
        "ce"
      ],
      [
        "_A",
        "side"
      ],
      [
        "mus",
        "ic"
      ],
      [
        "Sold",
        "iers"
      ],
      [
        "dut",
        "y"
      ],
      [
        "sovere",
        "ign"
      ],
      [
        "pil",
        "gri"
      ],
      [
        ".",
        "”"
      ],
      [
        "C",
        "on"
      ],
      [
        "D",
        "is"
      ],
      [
        "E",
        "CEN"
      ],
      [
        "G",
        "reat"
      ],
      [
        "H",
        "ouse"
      ],
      [
        "M",
        "ark"
      ],
      [
        "P",
        "o"
      ],
      [
        "P",
        "ray"
      ],
      [
        "R",
        "Y"
      ],
      [
        "S",
        "ave"
      ],
      [
        "S",
        "uch"
      ],
      [
        "U",
        "nd"
      ],
      [
        "W",
        "or"
      ],
      [
        "Y",
        "es"
      ],
      [
        "a",
        "w"
      ],
      [
        "b",
        "old"
      ],
      [
        "c",
        "at"
      ],
      [
        "d",
        "er"
      ],
      [
        "d",
        "ain"
      ],
      [
        "d",
        "ate"
      ],
      [
        "d",
        "ull"
      ],
      [
        "d",
        "rink"
      ],
      [
        "e",
        "ars"
      ],
      [
        "e",
        "ither"
      ],
      [
        "f",
        "in"
      ],
      [
        "g",
        "lor"
      ],
      [
        "h",
        "ur"
      ],
      [
        "k",
        "iss"
      ],
      [
        "l",
        "ines"
      ],
      [
        "o",
        "s"
      ],
      [
        "p",
        "ret"
      ],
      [
        "r",
        "on"
      ],
      [
        "r",
        "ous"
      ],
      [
        "s",
        "ong"
      ],
      [
        "s",
        "mell"
      ],
      [
        "t",
        "or"
      ],
      [
        "t",
        "ran"
      ],
      [
        "u",
        "es"
      ],
      [
        "w",
        "on"
      ],
      [
        "w",
        "oo"
      ],
      [
        "w",
        "ound"
      ],
      [
        "w",
        "hether"
      ],
      [
        "y",
        "ear"
      ],
      [
        "en",
        "s"
      ],
      [
        "is",
        "ure"
      ],
      [
        "ar",
        "g"
      ],
      [
        "to",
        "mb"
      ],
      [
        "me",
        "et"
      ],
      [
        "me",
        "mor"
      ],
      [
        "me",
        "ans"
      ],
      [
        "of",
        "ten"
      ],
      [
        "re",
        "ady"
      ],
      [
        "re",
        "ceive"
      ],
      [
        "re",
        "main"
      ],
      [
        "le",
        "ad"
      ],
      [
        "le",
        "aves"
      ],
      [
        "le",
        "isure"
      ],
      [
        "hi",
        "ther"
      ],
      [
        "ch",
        "er"
      ],
      [
        "lo",
        "t"
      ],
      [
        "Th",
        "ese"
      ],
      [
        "ir",
        "es"
      ],
      [
        "li",
        "p"
      ],
      [
        "ra",
        "in"
      ],
      [
        "ti",
        "ve"
      ],
      [
        "am",
        "ent"
      ],
      [
        "all",
        "y"
      ],
      [
        "oo",
        "t"
      ],
      [
        "fe",
        "ast"
      ],
      [
        "id",
        "es"
      ],
      [
        "ne",
        "ither"
      ],
      [
        "ne",
        "xt"
      ],
      [
        "sha",
        "dow"
      ],
      [
        "pe",
        "ace"
      ],
      [
        "sh",
        "ar"
      ],
      [
        "mo",
        "d"
      ],
      [
        "po",
        "sed"
      ],
      [
        "la",
        "u"
      ],
      [
        "ure",
        "d"
      ],
      [
        "com",
        "ing"
      ],
      [
        "go",
        "ds"
      ],
      [
        "than",
        "ks"
      ],
      [
        "di",
        "v"
      ],
      [
        "di",
        "ed"
      ],
      [
        "great",
        "er"
      ],
      [
        "ran",
        "k"
      ],
      [
        "ta",
        "ught"
      ],
      [
        "dis",
        "grace"
      ],
      [
        "did",
        "st"
      ],
      [
        "bl",
        "essed"
      ],
      [
        "bl",
        "ush"
      ],
      [
        "mar",
        "riage"
      ],
      [
        "pat",
        "ch"
      ],
      [
        "hand",
        "s"
      ],
      [
        "pl",
        "uck"
      ],
      [
        "hold",
        "s"
      ],
      [
        "foo",
        "t"
      ],
      [
        "high",
        "ness"
      ],
      [
        "pray",
        "ers"
      ],
      [
        "gr",
        "ound"
      ],
      [
        "faul",
        "t"
      ],
      [
        "quick",
        "ly"
      ],
      [
        "cor",
        "rupt"
      ],
      [
        "cred",
        "it"
      ],
      [
        "jud",
        "g"
      ],
      [
        "stra",
        "ight"
      ],
      [
        "deli",
        "ver"
      ],
      [
        "hum",
        "ble"
      ],
      [
        "lan",
        "gu"
      ],
      [
        "wast",
        "e"
      ],
      [
        "Du",
        "ke"
      ],
      [
        "dem",
        "and"
      ],
      [
        "Cl",
        "own"
      ],
      [
        "MA",
        "ECEN"
      ],
      [
        "cru",
        "el"
      ],
      [
        "MAECEN",
        "AS"
      ],
      [
        ".",
        "—"
      ],
      [
        "1",
        "1"
      ],
      [
        "B",
        "ring"
      ],
      [
        "C",
        "E"
      ],
      [
        "F",
        "a"
      ],
      [
        "G",
        "i"
      ],
      [
        "H",
        "ad"
      ],
      [
        "I",
        "RA"
      ],
      [
        "K",
        "E"
      ],
      [
        "K",
        "now"
      ],
      [
        "M",
        "EN"
      ],
      [
        "M",
        "aking"
      ],
      [
        "O",
        "MP"
      ],
      [
        "P",
        "OMP"
      ],
      [
        "S",
        "h"
      ],
      [
        "S",
        "p"
      ],
      [
        "S",
        "we"
      ],
      [
        "U",
        "R"
      ],
      [
        "a",
        "ther"
      ],
      [
        "a",
        "bo"
      ],
      [
        "b",
        "ook"
      ],
      [
        "b",
        "lame"
      ],
      [
        "c",
        "l"
      ],
      [
        "c",
        "la"
      ],
      [
        "c",
        "ro"
      ],
      [
        "d",
        "re"
      ],
      [
        "d",
        "ing"
      ],
      [
        "d",
        "am"
      ],
      [
        "d",
        "if"
      ],
      [
        "d",
        "umb"
      ],
      [
        "e",
        "em"
      ],
      [
        "f",
        "ly"
      ],
      [
        "f",
        "il"
      ],
      [
        "f",
        "arewell"
      ],
      [
        "g",
        "hed"
      ],
      [
        "h",
        "ood"
      ],
      [
        "h",
        "ind"
      ],
      [
        "h",
        "ard"
      ],
      [
        "h",
        "ang"
      ],
      [
        "i",
        "le"
      ],
      [
        "i",
        "ma"
      ],
      [
        "k",
        "er"
      ],
      [
        "l",
        "and"
      ],
      [
        "l",
        "ow"
      ],
      [
        "m",
        "ur"
      ],
      [
        "o",
        "d"
      ],
      [
        "o",
        "l"
      ],
      [
        "p",
        "it"
      ],
      [
        "p",
        "tion"
      ],
      [
        "r",
        "hy"
      ],
      [
        "s",
        "at"
      ],
      [
        "s",
        "it"
      ],
      [
        "s",
        "our"
      ],
      [
        "t",
        "it"
      ],
      [
        "t",
        "est"
      ],
      [
        "u",
        "b"
      ],
      [
        "u",
        "al"
      ],
      [
        "z",
        "ed"
      ],
      [
        "er",
        "r"
      ],
      [
        "er",
        "y"
      ],
      [
        "en",
        "ess"
      ],
      [
        "is",
        "es"
      ],
      [
        "ar",
        "ch"
      ],
      [
        "ll",
        "ent"
      ],
      [
        "st",
        "ar"
      ],
      [
        "st",
        "ars"
      ],
      [
        "to",
        "w"
      ],
      [
        "he",
        "at"
      ],
      [
        "me",
        "t"
      ],
      [
        "re",
        "ase"
      ],
      [
        "ha",
        "ving"
      ],
      [
        "be",
        "loved"
      ],
      [
        "le",
        "ast"
      ],
      [
        "le",
        "ft"
      ],
      [
        "wi",
        "de"
      ],
      [
        "ce",
        "ase"
      ],
      [
        "ow",
        "ard"
      ],
      [
        "for",
        "mer"
      ],
      [
        "for",
        "got"
      ],
      [
        "for",
        "get"
      ],
      [
        "de",
        "b"
      ],
      [
        "de",
        "ceive"
      ],
      [
        "li",
        "ps"
      ],
      [
        "wh",
        "ite"
      ],
      [
        "ent",
        "reat"
      ],
      [
        "all",
        "s"
      ],
      [
        "her",
        "s"
      ],
      [
        "her",
        "self"
      ],
      [
        "love",
        "ly"
      ],
      [
        "AN",
        "D"
      ],
      [
        "mor",
        "row"
      ],
      [
        "qu",
        "est"
      ],
      [
        "qu",
        "ite"
      ],
      [
        "un",
        "to"
      ],
      [
        "good",
        "ness"
      ],
      [
        "vi",
        "le"
      ],
      [
        "out",
        "ward"
      ],
      [
        "sp",
        "ace"
      ],
      [
        "ene",
        "my"
      ],
      [
        "beaut",
        "eous"
      ],
      [
        "ex",
        "press"
      ],
      [
        "per",
        "fect"
      ],
      [
        "des",
        "ert"
      ],
      [
        "fair",
        "er"
      ],
      [
        "bl",
        "ind"
      ],
      [
        "bet",
        "ray"
      ],
      [
        "sc",
        "orn"
      ],
      [
        "ac",
        "c"
      ],
      [
        "fl",
        "owers"
      ],
      [
        "wr",
        "ink"
      ],
      [
        "With",
        "in"
      ],
      [
        "mer",
        "it"
      ],
      [
        "pl",
        "ain"
      ],
      [
        "ward",
        "s"
      ],
      [
        "long",
        "er"
      ],
      [
        "sing",
        "le"
      ],
      [
        "under",
        "stand"
      ],
      [
        "bu",
        "ried"
      ],
      [
        "keep",
        "s"
      ],
      [
        "je",
        "wel"
      ],
      [
        "gl",
        "ad"
      ],
      [
        "spo",
        "ken"
      ],
      [
        "tra",
        "vel"
      ],
      [
        "sub",
        "ject"
      ],
      [
        "par",
        "tic"
      ],
      [
        "den",
        "y"
      ],
      [
        "stri",
        "ve"
      ],
      [
        "vant",
        "age"
      ],
      [
        "boy",
        "s"
      ],
      [
        "pos",
        "ition"
      ],
      [
        "wond",
        "er"
      ],
      [
        "Mar",
        "ry"
      ],
      [
        "bit",
        "ter"
      ],
      [
        "sim",
        "ple"
      ],
      [
        "fing",
        "er"
      ],
      [
        "fres",
        "h"
      ],
      [
        "pap",
        "er"
      ],
      [
        "invent",
        "ion"
      ],
      [
        "choo",
        "se"
      ],
      [
        "fortun",
        "es"
      ],
      [
        "Und",
        "er"
      ],
      [
        "glor",
        "y"
      ],
      [
        "pret",
        "ty"
      ],
      [
        "arg",
        "ument"
      ],
      [
        "memor",
        "y"
      ],
      [
        "shar",
        "p"
      ],
      [
        "Fa",
        "ith"
      ],
      [
        "IRA",
        "S"
      ],
      [
        "POMP",
        "E"
      ],
      [
        "partic",
        "ul"
      ],
      [
        "A",
        "f"
      ],
      [
        "A",
        "h"
      ],
      [
        "A",
        "m"
      ],
      [
        "B",
        "oth"
      ],
      [
        "C",
        "amp"
      ],
      [
        "D",
        "U"
      ],
      [
        "E",
        "re"
      ],
      [
        "F",
        "ind"
      ],
      [
        "G",
        "r"
      ],
      [
        "I",
        "nd"
      ],
      [
        "I",
        "ras"
      ],
      [
        "L",
        "I"
      ],
      [
        "L",
        "e"
      ],
      [
        "L",
        "est"
      ],
      [
        "M",
        "on"
      ],
      [
        "M",
        "ight"
      ],
      [
        "N",
        "RY"
      ],
      [
        "S",
        "te"
      ],
      [
        "_",
        "Re"
      ],
      [
        "a",
        "le"
      ],
      [
        "a",
        "ck"
      ],
      [
        "b",
        "an"
      ],
      [
        "b",
        "ase"
      ],
      [
        "b",
        "urn"
      ],
      [
        "c",
        "r"
      ],
      [
        "c",
        "re"
      ],
      [
        "c",
        "le"
      ],
      [
        "c",
        "un"
      ],
      [
        "c",
        "atch"
      ],
      [
        "c",
        "lear"
      ],
      [
        "d",
        "ue"
      ],
      [
        "e",
        "ed"
      ],
      [
        "e",
        "ase"
      ],
      [
        "e",
        "vil"
      ],
      [
        "f",
        "le"
      ],
      [
        "f",
        "our"
      ],
      [
        "f",
        "ive"
      ],
      [
        "g",
        "s"
      ],
      [
        "i",
        "red"
      ],
      [
        "i",
        "led"
      ],
      [
        "l",
        "ar"
      ],
      [
        "l",
        "est"
      ],
      [
        "l",
        "ine"
      ],
      [
        "m",
        "n"
      ],
      [
        "m",
        "ou"
      ],
      [
        "m",
        "il"
      ],
      [
        "p",
        "y"
      ],
      [
        "p",
        "al"
      ],
      [
        "p",
        "ers"
      ],
      [
        "r",
        "are"
      ],
      [
        "s",
        "wi"
      ],
      [
        "s",
        "pr"
      ],
      [
        "v",
        "an"
      ],
      [
        "v",
        "ows"
      ],
      [
        "w",
        "ed"
      ],
      [
        "w",
        "ise"
      ],
      [
        "w",
        "ret"
      ],
      [
        "x",
        "ed"
      ],
      [
        "th",
        "ir"
      ],
      [
        "in",
        "ed"
      ],
      [
        "at",
        "ure"
      ],
      [
        "se",
        "ason"
      ],
      [
        "me",
        "di"
      ],
      [
        "me",
        "asure"
      ],
      [
        "it",
        "ies"
      ],
      [
        "be",
        "come"
      ],
      [
        "le",
        "ase"
      ],
      [
        "ow",
        "ed"
      ],
      [
        "ut",
        "ation"
      ],
      [
        "as",
        "sa"
      ],
      [
        "for",
        "bid"
      ],
      [
        "ld",
        "ed"
      ],
      [
        "de",
        "vil"
      ],
      [
        "we",
        "igh"
      ],
      [
        "li",
        "ar"
      ],
      [
        "al",
        "y"
      ],
      [
        "al",
        "ready"
      ],
      [
        "so",
        "le"
      ],
      [
        "ent",
        "ertain"
      ],
      [
        "ess",
        "ion"
      ],
      [
        "ti",
        "l"
      ],
      [
        "ti",
        "er"
      ],
      [
        "oo",
        "p"
      ],
      [
        "fe",
        "el"
      ],
      [
        "id",
        "ent"
      ],
      [
        "ain",
        "ted"
      ],
      [
        "sha",
        "ke"
      ],
      [
        "ge",
        "ment"
      ],
      [
        "po",
        "ss"
      ],
      [
        "la",
        "bour"
      ],
      [
        "HE",
        "NRY"
      ],
      [
        "ro",
        "se"
      ],
      [
        "mu",
        "se"
      ],
      [
        "ak",
        "es"
      ],
      [
        "com",
        "fort"
      ],
      [
        "un",
        "g"
      ],
      [
        "un",
        "kind"
      ],
      [
        "ct",
        "or"
      ],
      [
        "man",
        "ners"
      ],
      [
        "see",
        "k"
      ],
      [
        "see",
        "ing"
      ],
      [
        "sir",
        "rah"
      ],
      [
        "sa",
        "u"
      ],
      [
        "ple",
        "as"
      ],
      [
        "pro",
        "ce"
      ],
      [
        "ran",
        "som"
      ],
      [
        "dis",
        "pleasure"
      ],
      [
        "sp",
        "end"
      ],
      [
        "ex",
        "per"
      ],
      [
        "ex",
        "cuse"
      ],
      [
        "fi",
        "eld"
      ],
      [
        "per",
        "ate"
      ],
      [
        "some",
        "thing"
      ],
      [
        "gra",
        "ve"
      ],
      [
        "gra",
        "ces"
      ],
      [
        "honour",
        "able"
      ],
      [
        "gu",
        "il"
      ],
      [
        "fl",
        "ower"
      ],
      [
        "dear",
        "ly"
      ],
      [
        "ab",
        "sent"
      ],
      [
        "It",
        "aly"
      ],
      [
        "pres",
        "sed"
      ],
      [
        "orn",
        "s"
      ],
      [
        "off",
        "ence"
      ],
      [
        "cour",
        "tier"
      ],
      [
        "mis",
        "s"
      ],
      [
        "fir",
        "m"
      ],
      [
        "ig",
        "nor"
      ],
      [
        "Do",
        "th"
      ],
      [
        "count",
        "ry"
      ],
      [
        "pi",
        "re"
      ],
      [
        "chi",
        "de"
      ],
      [
        "gentle",
        "woman"
      ],
      [
        "bes",
        "tow"
      ],
      [
        "bar",
        "ren"
      ],
      [
        "gr",
        "own"
      ],
      [
        "pre",
        "cious"
      ],
      [
        "ca",
        "me"
      ],
      [
        "pain",
        "s"
      ],
      [
        "foll",
        "y"
      ],
      [
        "tal",
        "k"
      ],
      [
        "ange",
        "l"
      ],
      [
        "whi",
        "le"
      ],
      [
        "gre",
        "en"
      ],
      [
        "gre",
        "et"
      ],
      [
        "lear",
        "ned"
      ],
      [
        "sold",
        "iers"
      ],
      [
        "br",
        "ought"
      ],
      [
        "sl",
        "ow"
      ],
      [
        "chee",
        "ks"
      ],
      [
        "Un",
        "less"
      ],
      [
        "creat",
        "ure"
      ],
      [
        "inc",
        "rease"
      ],
      [
        "reason",
        "s"
      ],
      [
        "wel",
        "come"
      ],
      [
        "jud",
        "gement"
      ],
      [
        "pay",
        "s"
      ],
      [
        "ec",
        "enas"
      ],
      [
        "dou",
        "ble"
      ],
      [
        "Ma",
        "ecenas"
      ],
      [
        "wis",
        "dom"
      ],
      [
        "stor",
        "y"
      ],
      [
        "appro",
        "ach"
      ],
      [
        "bir",
        "th"
      ],
      [
        "physi",
        "ci"
      ],
      [
        "Mo",
        "st"
      ],
      [
        "etern",
        "al"
      ],
      [
        "roy",
        "al"
      ],
      [
        "pilgri",
        "m"
      ],
      [
        "Swe",
        "et"
      ],
      [
        "abo",
        "ve"
      ],
      [
        "cla",
        "im"
      ],
      [
        "dre",
        "am"
      ],
      [
        "dif",
        "fer"
      ],
      [
        "rhy",
        "me"
      ],
      [
        "tit",
        "le"
      ],
      [
        "POMPE",
        "Y"
      ],
      [
        "Af",
        "ter"
      ],
      [
        "DU",
        "KE"
      ],
      [
        "_Re",
        "ads"
      ],
      [
        "cun",
        "ning"
      ],
      [
        "swi",
        "ft"
      ],
      [
        "1",
        "5"
      ],
      [
        "A",
        "d"
      ],
      [
        "A",
        "way"
      ],
      [
        "A",
        "LL"
      ],
      [
        "B",
        "less"
      ],
      [
        "D",
        "es"
      ],
      [
        "E",
        "T"
      ],
      [
        "F",
        "air"
      ],
      [
        "G",
        "et"
      ],
      [
        "I",
        "X"
      ],
      [
        "I",
        "ANA"
      ],
      [
        "M",
        "ard"
      ],
      [
        "M",
        "ust"
      ],
      [
        "M",
        "enas"
      ],
      [
        "P",
        "r"
      ],
      [
        "R",
        "O"
      ],
      [
        "R",
        "es"
      ],
      [
        "S",
        "ee"
      ],
      [
        "T",
        "ru"
      ],
      [
        "V",
        "ent"
      ],
      [
        "a",
        "de"
      ],
      [
        "b",
        "s"
      ],
      [
        "b",
        "are"
      ],
      [
        "b",
        "ility"
      ],
      [
        "c",
        "ra"
      ],
      [
        "c",
        "oo"
      ],
      [
        "c",
        "ry"
      ],
      [
        "c",
        "uck"
      ],
      [
        "c",
        "oward"
      ],
      [
        "d",
        "ess"
      ],
      [
        "d",
        "ower"
      ],
      [
        "e",
        "th"
      ],
      [
        "e",
        "ll"
      ],
      [
        "f",
        "f"
      ],
      [
        "f",
        "ight"
      ],
      [
        "f",
        "if"
      ],
      [
        "f",
        "ence"
      ],
      [
        "f",
        "ish"
      ],
      [
        "f",
        "ond"
      ],
      [
        "f",
        "its"
      ],
      [
        "f",
        "ancy"
      ],
      [
        "g",
        "es"
      ],
      [
        "g",
        "le"
      ],
      [
        "g",
        "ent"
      ],
      [
        "h",
        "ung"
      ],
      [
        "k",
        "ne"
      ],
      [
        "l",
        "in"
      ],
      [
        "l",
        "come"
      ],
      [
        "m",
        "al"
      ],
      [
        "m",
        "ount"
      ],
      [
        "m",
        "pet"
      ],
      [
        "n",
        "y"
      ],
      [
        "o",
        "be"
      ],
      [
        "o",
        "pe"
      ],
      [
        "o",
        "ple"
      ],
      [
        "p",
        "ly"
      ],
      [
        "p",
        "aid"
      ],
      [
        "r",
        "t"
      ],
      [
        "r",
        "end"
      ],
      [
        "s",
        "ma"
      ],
      [
        "s",
        "mo"
      ],
      [
        "s",
        "ence"
      ],
      [
        "t",
        "in"
      ],
      [
        "t",
        "ry"
      ],
      [
        "v",
        "ain"
      ],
      [
        "v",
        "ill"
      ],
      [
        "th",
        "or"
      ],
      [
        "th",
        "row"
      ],
      [
        "th",
        "ither"
      ],
      [
        "in",
        "j"
      ],
      [
        "in",
        "ch"
      ],
      [
        "in",
        "her"
      ],
      [
        "in",
        "form"
      ],
      [
        "an",
        "c"
      ],
      [
        "an",
        "on"
      ],
      [
        "or",
        "ous"
      ],
      [
        "en",
        "ch"
      ],
      [
        "is",
        "sue"
      ],
      [
        "ar",
        "ing"
      ],
      [
        "ar",
        "ed"
      ],
      [
        "st",
        "ood"
      ],
      [
        "st",
        "op"
      ],
      [
        "re",
        "g"
      ],
      [
        "re",
        "ck"
      ],
      [
        "re",
        "vo"
      ],
      [
        "ing",
        "ly"
      ],
      [
        "ha",
        "ir"
      ],
      [
        "be",
        "g"
      ],
      [
        "be",
        "ard"
      ],
      [
        "be",
        "long"
      ],
      [
        "be",
        "comes"
      ],
      [
        "be",
        "gg"
      ],
      [
        "le",
        "g"
      ],
      [
        "wi",
        "dow"
      ],
      [
        "ed",
        "ge"
      ],
      [
        "ut",
        "es"
      ],
      [
        "for",
        "feit"
      ],
      [
        "Th",
        "ine"
      ],
      [
        "li",
        "v"
      ],
      [
        "li",
        "ant"
      ],
      [
        "our",
        "s"
      ],
      [
        "al",
        "ter"
      ],
      [
        "al",
        "though"
      ],
      [
        "ra",
        "ge"
      ],
      [
        "ent",
        "y"
      ],
      [
        "ma",
        "king"
      ],
      [
        "Wh",
        "om"
      ],
      [
        "ter",
        "n"
      ],
      [
        "oo",
        "th"
      ],
      [
        "fe",
        "e"
      ],
      [
        "id",
        "le"
      ],
      [
        "id",
        "ius"
      ],
      [
        "AR",
        "D"
      ],
      [
        "end",
        "ed"
      ],
      [
        "sha",
        "pe"
      ],
      [
        "pe",
        "ople"
      ],
      [
        "ru",
        "de"
      ],
      [
        "fa",
        "st"
      ],
      [
        "fa",
        "me"
      ],
      [
        "sh",
        "ine"
      ],
      [
        "mo",
        "an"
      ],
      [
        "mo",
        "ve"
      ],
      [
        "po",
        "ison"
      ],
      [
        "con",
        "ce"
      ],
      [
        "ro",
        "ses"
      ],
      [
        "un",
        "uch"
[...]
